{
  "version": "1.0",
  "truncation": null,
  "padding": null,
  "added_tokens": [
    {
      "id": 0,
      "content": "<unk>",
      "single_word": false,
      "lstrip": false,
      "rstrip": false,
      "normalized": false,
      "special": true
    },
    {
      "id": 1,
      "content": "<pad>",
      "single_word": false,
      "lstrip": false,
      "rstrip": false,
      "normalized": false,
      "special": true
    },
    {
      "id": 2,
      "content": "<s>",
      "single_word": false,
      "lstrip": false,
      "rstrip": false,
      "normalized": false,
      "special": true
    },
    {
      "id": 3,
      "content": "</s>",
      "single_word": false,
      "lstrip": false,
      "rstrip": false,
      "normalized": false,
      "special": true
    }
  ],
  "normalizer": null,
  "pre_tokenizer": {
    "type": "ByteLevel",
    "add_prefix_space": false,
    "trim_offsets": true,
    "use_regex": true
  },
  "post_processor": null,
  "decoder": {
    "type": "ByteLevel",
    "add_prefix_space": true,
    "trim_offsets": true,
    "use_regex": true
  },
  "model": {
    "type": "BPE",
    "dropout": null,
    "unk_token": "<unk>",
    "continuing_subword_prefix": null,
    "end_of_word_suffix": null,
    "fuse_unk": false,
    "byte_fallback": false,
    "ignore_merges": false,
    "vocab": {
      "<unk>": 0,
      "<pad>": 1,
      "<s>": 2,
      "</s>": 3,
      "!": 4,
      "\"": 5,
      "#": 6,
      "$": 7,
      "%": 8,
      "&": 9,
      "'": 10,
      "(": 11,
      ")": 12,
      "*": 13,
      "+": 14,
      ",": 15,
      "-": 16,
      ".": 17,
      "/": 18,
      "0": 19,
      "1": 20,
      "2": 21,
      "3": 22,
      "4": 23,
      "5": 24,
      "6": 25,
      "7": 26,
      "8": 27,
      "9": 28,
      ":": 29,
      ";": 30,
      "<": 31,
      "=": 32,
      ">": 33,
      "?": 34,
      "@": 35,
      "A": 36,
      "B": 37,
      "C": 38,
      "D": 39,
      "E": 40,
      "F": 41,
      "G": 42,
      "H": 43,
      "I": 44,
      "J": 45,
      "K": 46,
      "L": 47,
      "M": 48,
      "N": 49,
      "O": 50,
      "P": 51,
      "Q": 52,
      "R": 53,
      "S": 54,
      "T": 55,
      "U": 56,
      "V": 57,
      "W": 58,
      "X": 59,
      "Y": 60,
      "Z": 61,
      "[": 62,
      "\\": 63,
      "]": 64,
      "^": 65,
      "_": 66,
      "`": 67,
      "a": 68,
      "b": 69,
      "c": 70,
      "d": 71,
      "e": 72,
      "f": 73,
      "g": 74,
      "h": 75,
      "i": 76,
      "j": 77,
      "k": 78,
      "l": 79,
      "m": 80,
      "n": 81,
      "o": 82,
      "p": 83,
      "q": 84,
      "r": 85,
      "s": 86,
      "t": 87,
      "u": 88,
      "v": 89,
      "w": 90,
      "x": 91,
      "y": 92,
      "z": 93,
      "{": 94,
      "|": 95,
      "}": 96,
      "~": 97,
      "¡": 98,
      "¢": 99,
      "£": 100,
      "¤": 101,
      "¥": 102,
      "¦": 103,
      "§": 104,
      "¨": 105,
      "©": 106,
      "ª": 107,
      "«": 108,
      "¬": 109,
      "®": 110,
      "¯": 111,
      "°": 112,
      "±": 113,
      "²": 114,
      "³": 115,
      "´": 116,
      "µ": 117,
      "¶": 118,
      "·": 119,
      "¸": 120,
      "¹": 121,
      "º": 122,
      "»": 123,
      "¼": 124,
      "½": 125,
      "¾": 126,
      "¿": 127,
      "À": 128,
      "Á": 129,
      "Â": 130,
      "Ã": 131,
      "Ä": 132,
      "Å": 133,
      "Æ": 134,
      "Ç": 135,
      "È": 136,
      "É": 137,
      "Ê": 138,
      "Ë": 139,
      "Ì": 140,
      "Í": 141,
      "Î": 142,
      "Ï": 143,
      "Ð": 144,
      "Ñ": 145,
      "Ò": 146,
      "Ó": 147,
      "Ô": 148,
      "Õ": 149,
      "Ö": 150,
      "×": 151,
      "Ø": 152,
      "Ù": 153,
      "Ú": 154,
      "Û": 155,
      "Ü": 156,
      "Ý": 157,
      "Þ": 158,
      "ß": 159,
      "à": 160,
      "á": 161,
      "â": 162,
      "ã": 163,
      "ä": 164,
      "å": 165,
      "æ": 166,
      "ç": 167,
      "è": 168,
      "é": 169,
      "ê": 170,
      "ë": 171,
      "ì": 172,
      "í": 173,
      "î": 174,
      "ï": 175,
      "ð": 176,
      "ñ": 177,
      "ò": 178,
      "ó": 179,
      "ô": 180,
      "õ": 181,
      "ö": 182,
      "÷": 183,
      "ø": 184,
      "ù": 185,
      "ú": 186,
      "û": 187,
      "ü": 188,
      "ý": 189,
      "þ": 190,
      "ÿ": 191,
      "Ā": 192,
      "ā": 193,
      "Ă": 194,
      "ă": 195,
      "Ą": 196,
      "ą": 197,
      "Ć": 198,
      "ć": 199,
      "Ĉ": 200,
      "ĉ": 201,
      "Ċ": 202,
      "ċ": 203,
      "Č": 204,
      "č": 205,
      "Ď": 206,
      "ď": 207,
      "Đ": 208,
      "đ": 209,
      "Ē": 210,
      "ē": 211,
      "Ĕ": 212,
      "ĕ": 213,
      "Ė": 214,
      "ė": 215,
      "Ę": 216,
      "ę": 217,
      "Ě": 218,
      "ě": 219,
      "Ĝ": 220,
      "ĝ": 221,
      "Ğ": 222,
      "ğ": 223,
      "Ġ": 224,
      "ġ": 225,
      "Ģ": 226,
      "ģ": 227,
      "Ĥ": 228,
      "ĥ": 229,
      "Ħ": 230,
      "ħ": 231,
      "Ĩ": 232,
      "ĩ": 233,
      "Ī": 234,
      "ī": 235,
      "Ĭ": 236,
      "ĭ": 237,
      "Į": 238,
      "į": 239,
      "İ": 240,
      "ı": 241,
      "Ĳ": 242,
      "ĳ": 243,
      "Ĵ": 244,
      "ĵ": 245,
      "Ķ": 246,
      "ķ": 247,
      "ĸ": 248,
      "Ĺ": 249,
      "ĺ": 250,
      "Ļ": 251,
      "ļ": 252,
      "Ľ": 253,
      "ľ": 254,
      "Ŀ": 255,
      "ŀ": 256,
      "Ł": 257,
      "ł": 258,
      "Ń": 259,
      "Ġt": 260,
      "he": 261,
      "Ġa": 262,
      "Ġthe": 263,
      "in": 264,
      "Ġw": 265,
      "Ġs": 266,
      "Ġo": 267,
      "re": 268,
      "nd": 269,
      "ha": 270,
      "ou": 271,
      "Ġb": 272,
      "er": 273,
      "Ġf": 274,
      "Ġand": 275,
      "Ġc": 276,
      "ed": 277,
      "it": 278,
      "Ġm": 279,
      "Ġof": 280,
      "ing": 281,
      "ll": 282,
      "en": 283,
      "on": 284,
      "Ġd": 285,
      "is": 286,
      "Ġto": 287,
      "or": 288,
      "Ġl": 289,
      "es": 290,
      "as": 291,
      "ar": 292,
      "Ġh": 293,
      "âĢ": 294,
      "Ġha": 295,
      "Ġin": 296,
      "Ġp": 297,
      "Ġg": 298,
      "Ġn": 299,
      "Ġhe": 300,
      "ĠI": 301,
      "at": 302,
      "an": 303,
      "hat": 304,
      "om": 305,
      "Ġbe": 306,
      "ow": 307,
      "le": 308,
      "Ġwas": 309,
      "id": 310,
      "Ġu": 311,
      "ut": 312,
      "Ġe": 313,
      "ot": 314,
      "Ġwe": 315,
      "ld": 316,
      "Ġit": 317,
      "gh": 318,
      "ĠT": 319,
      "ve": 320,
      "Ġy": 321,
      "ic": 322,
      "Ġth": 323,
      "Ġon": 324,
      "Ġthat": 325,
      "Ġr": 326,
      "st": 327,
      "ly": 328,
      "im": 329,
      "ur": 330,
      "ver": 331,
      "Ġyou": 332,
      "ĠâĢ": 333,
      "Ġst": 334,
      "ac": 335,
      "ir": 336,
      "ay": 337,
      "Ġhad": 338,
      "Ġwh": 339,
      "et": 340,
      "Ġhis": 341,
      "Ġas": 342,
      "ith": 343,
      "ght": 344,
      "se": 345,
      "ould": 346,
      "oo": 347,
      "Ġwith": 348,
      "ĠThe": 349,
      "ĠB": 350,
      "Ġfor": 351,
      "ĠâĢľ": 352,
      "ent": 353,
      "Ġthey": 354,
      "âĢĿ": 355,
      "il": 356,
      "Ġsa": 357,
      "al": 358,
      "ad": 359,
      "Ġnot": 360,
      "Ġre": 361,
      "Ġ\"": 362,
      "Ġan": 363,
      "ke": 364,
      "ore": 365,
      "Ġat": 366,
      "am": 367,
      "Ġup": 368,
      "Ġwere": 369,
      "ill": 370,
      "ight": 371,
      "if": 372,
      "Ġfr": 373,
      "ain": 374,
      "ion": 375,
      "ro": 376,
      "ce": 377,
      "ome": 378,
      "Ġis": 379,
      "Ġse": 380,
      "Ġall": 381,
      "Ġhave": 382,
      "her": 383,
      "ag": 384,
      "ter": 385,
      "Ġsaid": 386,
      "ĠA": 387,
      "Ġthem": 388,
      "red": 389,
      "ich": 390,
      "ong": 391,
      "all": 392,
      "Ġmy": 393,
      "pe": 394,
      "ĠS": 395,
      "Ġhim": 396,
      "ard": 397,
      "ĠH": 398,
      "Ġwhich": 399,
      "Ġbut": 400,
      "bo": 401,
      "Ġme": 402,
      "ess": 403,
      "ch": 404,
      "Ġsh": 405,
      "um": 406,
      "un": 407,
      "ood": 408,
      "Ġfrom": 409,
      "Ġtheir": 410,
      "Ġcould": 411,
      "ĠW": 412,
      "Ġfe": 413,
      "ast": 414,
      "ack": 415,
      "and": 416,
      "ves": 417,
      "Ġso": 418,
      "ound": 419,
      "Ġne": 420,
      "out": 421,
      "Ġwhe": 422,
      "Ġk": 423,
      "own": 424,
      "nt": 425,
      "Ġour": 426,
      "Ġout": 427,
      "ri": 428,
      "Ġthere": 429,
      "âĢĻ": 430,
      "Ġgo": 431,
      "Ġor": 432,
      "Ġsu": 433,
      "Ġli": 434,
      "Ġle": 435,
      "ble": 436,
      "ĠM": 437,
      "Ġdo": 438,
      "reat": 439,
      "pp": 440,
      "ind": 441,
      "Ġno": 442,
      "ĠHe": 443,
      "very": 444,
      "Ġone": 445,
      "ct": 446,
      "Ġal": 447,
      "Ġde": 448,
      "Ġus": 449,
      "ge": 450,
      "ous": 451,
      "ust": 452,
      "ilbo": 453,
      "ĠBilbo": 454,
      "ĠG": 455,
      "ck": 456,
      "Ġthis": 457,
      "Ġsee": 458,
      "Ġex": 459,
      "ul": 460,
      "Ġint": 461,
      "ough": 462,
      "Ġby": 463,
      "one": 464,
      "ure": 465,
      "ide": 466,
      "qu": 467,
      "Ġare": 468,
      "!âĢĿ": 469,
      "us": 470,
      "Ġwould": 471,
      "Ġdown": 472,
      "Ġsp": 473,
      "Ġbr": 474,
      "ame": 475,
      "Ġsome": 476,
      "ook": 477,
      "Ġj": 478,
      "Ġcl": 479,
      "Ġv": 480,
      "Ġho": 481,
      "hing": 482,
      "Ġupon": 483,
      "Ġpl": 484,
      "ĠIt": 485,
      ".\"": 486,
      "ie": 487,
      "Ġinto": 488,
      "ak": 489,
      "ven": 490,
      "art": 491,
      "Ġag": 492,
      "Ġam": 493,
      "ant": 494,
      "our": 495,
      "est": 496,
      "Ġro": 497,
      "ake": 498,
      "hed": 499,
      "han": 500,
      "Ġtr": 501,
      "au": 502,
      "ort": 503,
      "Ġkn": 504,
      "ep": 505,
      "ĠTh": 506,
      "Ġif": 507,
      "ord": 508,
      "Ġbeen": 509,
      "ap": 510,
      "ss": 511,
      "--": 512,
      "Ġmore": 513,
      "Ġman": 514,
      "fore": 515,
      "ers": 516,
      "lf": 517,
      "ate": 518,
      "Ġab": 519,
      "ount": 520,
      "Ġwhen": 521,
      "ell": 522,
      "ĠL": 523,
      "bl": 524,
      "ĠC": 525,
      "Ġwill": 526,
      "ther": 527,
      "Ġpo": 528,
      "Ġcan": 529,
      "Ġlike": 530,
      "Ġback": 531,
      "Ġwhat": 532,
      "ist": 533,
      "hall": 534,
      "Ġany": 535,
      "ark": 536,
      "Ġgr": 537,
      "Ġyour": 538,
      "Ġvery": 539,
      "nder": 540,
      "ger": 541,
      "Ġgreat": 542,
      "Ġmo": 543,
      "Ġqu": 544,
      "Ġwho": 545,
      "itt": 546,
      ",âĢĿ": 547,
      "el": 548,
      "Ġtre": 549,
      "ace": 550,
      "war": 551,
      "Ġtim": 552,
      "Ġlong": 553,
      "Ġover": 554,
      "ig": 555,
      "Ġdr": 556,
      "Ġbefore": 557,
      "ive": 558,
      "Ġcame": 559,
      "Ġdwar": 560,
      "ick": 561,
      "way": 562,
      "Ġcom": 563,
      "ĠO": 564,
      "ol": 565,
      "ite": 566,
      "Ġfl": 567,
      ".âĢĿ": 568,
      "ink": 569,
      "Ġagain": 570,
      "Ġnow": 571,
      "Ġlook": 572,
      "Ġtime": 573,
      "ĠN": 574,
      "Ġbl": 575,
      "Ġabout": 576,
      "ought": 577,
      "ĠP": 578,
      "ry": 579,
      "fter": 580,
      "ire": 581,
      "Ġcon": 582,
      "'s": 583,
      ",\"": 584,
      "ered": 585,
      "ass": 586,
      "Ġsl": 587,
      "Ġonly": 588,
      "bb": 589,
      "ins": 590,
      "urn": 591,
      "ĠThey": 592,
      "ade": 593,
      "are": 594,
      "ile": 595,
      "Ġun": 596,
      "ĠF": 597,
      "ĠâĢĶ": 598,
      "Ġtw": 599,
      "Ġdwarves": 600,
      "Ġthr": 601,
      "ĠBut": 602,
      "mer": 603,
      "Ġthan": 604,
      "Ġstr": 605,
      "ward": 606,
      "Ġtoo": 607,
      "Ġsm": 608,
      "Ġother": 609,
      "dd": 610,
      "Ġcome": 611,
      "ation": 612,
      "Ġway": 613,
      "Ġget": 614,
      "ĠE": 615,
      "Ġoff": 616,
      "Ġday": 617,
      "Ġar": 618,
      "Ġdid": 619,
      "Ġgood": 620,
      "ally": 621,
      "ountain": 622,
      "ittle": 623,
      "ings": 624,
      "Ġlittle": 625,
      "able": 626,
      "self": 627,
      "Ġen": 628,
      "orin": 629,
      "Ġsc": 630,
      "wn": 631,
      "Ġhand": 632,
      "Ġpre": 633,
      "Ġshould": 634,
      "Ġknow": 635,
      "ĠThorin": 636,
      "ose": 637,
      "ĠThere": 638,
      "pt": 639,
      "Ġco": 640,
      "Ġstill": 641,
      "em": 642,
      "Ġfar": 643,
      "ĠD": 644,
      "Ġafter": 645,
      "Ġlast": 646,
      "Ġpro": 647,
      "hes": 648,
      "Ġwat": 649,
      "Ġthen": 650,
      "You": 651,
      "ning": 652,
      "?\"": 653,
      "enger": 654,
      "ave": 655,
      "ious": 656,
      "Ġdark": 657,
      "hallenger": 658,
      "med": 659,
      "Ġsha": 660,
      "Ġmade": 661,
      "Ġsw": 662,
      "Ġey": 663,
      "Ġeven": 664,
      "ĠChallenger": 665,
      "ies": 666,
      "Ġgl": 667,
      "ence": 668,
      "Ġlight": 669,
      "ine": 670,
      "Ġunder": 671,
      "th": 672,
      "ved": 673,
      "ath": 674,
      "ice": 675,
      "Ġthought": 676,
      "Ġround": 677,
      "ried": 678,
      "Ġhead": 679,
      "Ġwhere": 680,
      "Ġthrough": 681,
      "oll": 682,
      "Ġits": 683,
      "age": 684,
      "op": 685,
      "ull": 686,
      "Ġaway": 687,
      "Ġcr": 688,
      "Ġrem": 689,
      "bbit": 690,
      "ĠJ": 691,
      "Ġmust": 692,
      "Ġbeg": 693,
      "Ġthink": 694,
      "iff": 695,
      "ft": 696,
      "fess": 697,
      "Ġac": 698,
      "Ġwent": 699,
      "pped": 700,
      "Ġim": 701,
      "Ġgot": 702,
      "led": 703,
      "ked": 704,
      "ars": 705,
      "ful": 706,
      "ted": 707,
      "Ġsay": 708,
      "Ġmay": 709,
      "Ġwor": 710,
      "Ġop": 711,
      "ance": 712,
      "ish": 713,
      "Ġhow": 714,
      "Ġend": 715,
      "iz": 716,
      "Ġbo": 717,
      "Ġwhile": 718,
      "ĠThen": 719,
      "Ġexp": 720,
      "'t": 721,
      "Ġturn": 722,
      "irst": 723,
      "Ġfell": 724,
      "Ġlo": 725,
      "Ġhas": 726,
      "ĠWe": 727,
      "?âĢĿ": 728,
      "ened": 729,
      "alf": 730,
      "Ġtwo": 731,
      "fessor": 732,
      "ĠIn": 733,
      "ummer": 734,
      "Ġhobbit": 735,
      "ond": 736,
      "ting": 737,
      "Ġpr": 738,
      "andalf": 739,
      "ff": 740,
      "read": 741,
      "omet": 742,
      "Ġnever": 743,
      "ng": 744,
      "Ġgobl": 745,
      "Ġjust": 746,
      "uch": 747,
      "Ġdis": 748,
      "ue": 749,
      "ĠGandalf": 750,
      "Ġ(": 751,
      "Ġfound": 752,
      "Ġgre": 753,
      "Ġdoor": 754,
      "ĠLord": 755,
      "iver": 756,
      "Ġold": 757,
      "Ġpe": 758,
      "wards": 759,
      "Ġgu": 760,
      "rofessor": 761,
      "Ġmost": 762,
      "ling": 763,
      "Ġfirst": 764,
      "Ġeyes": 765,
      "The": 766,
      "os": 767,
      "Ġever": 768,
      "act": 769,
      "hind": 770,
      "Ġad": 771,
      "Ġbel": 772,
      "Ġsaw": 773,
      "Ġsuch": 774,
      "Ġnight": 775,
      "lee": 776,
      "ĠProfessor": 777,
      "dden": 778,
      "Ġthese": 779,
      "Ġhere": 780,
      "Ġwell": 781,
      "Ġhu": 782,
      "ather": 783,
      "Ġpass": 784,
      "Ġbehind": 785,
      "ne": 786,
      "Ġmuch": 787,
      "agon": 788,
      "ach": 789,
      "ĠSummer": 790,
      "ĠR": 791,
      "Ġspe": 792,
      "Ġsomet": 793,
      "Ġtrees": 794,
      "ĠSummerlee": 795,
      "amp": 796,
      "Ġcha": 797,
      "Ġpart": 798,
      "ions": 799,
      "ared": 800,
      "les": 801,
      "ang": 802,
      "ĠSo": 803,
      "ving": 804,
      "Ġdon": 805,
      "agg": 806,
      "ĠAnd": 807,
      "king": 808,
      "me": 809,
      "Ġke": 810,
      "Ġfire": 811,
      "Ġhar": 812,
      "Ġevery": 813,
      "Ġch": 814,
      "ows": 815,
      "Ġmany": 816,
      "ans": 817,
      "Ġheard": 818,
      "Ġwater": 819,
      "!\"": 820,
      "ect": 821,
      "Ġbet": 822,
      "Ġseemed": 823,
      "lves": 824,
      "oh": 825,
      "Ġmight": 826,
      "Ġleft": 827,
      "Ġlooked": 828,
      "ree": 829,
      "Ġthough": 830,
      "uck": 831,
      "Ġwood": 832,
      "Ġshall": 833,
      "Ġfind": 834,
      "ross": 835,
      "Ġwa": 836,
      "Ġrock": 837,
      "ĠJoh": 838,
      "ĠJohn": 839,
      "Ġfore": 840,
      "Ġamong": 841,
      "ud": 842,
      "Ġunt": 843,
      "Ġdragon": 844,
      "Ġgoblins": 845,
      "ment": 846,
      "ĠYou": 847,
      "Ġside": 848,
      "Ġright": 849,
      "ung": 850,
      "az": 851,
      "get": 852,
      "Ġown": 853,
      "anc": 854,
      "Ġsoon": 855,
      "ated": 856,
      "Ġdes": 857,
      "te": 858,
      "Ġcle": 859,
      "Ġmake": 860,
      "Ġnothing": 861,
      "ures": 862,
      "ert": 863,
      "ity": 864,
      "ise": 865,
      "bove": 866,
      "side": 867,
      "ream": 868,
      "ank": 869,
      "owed": 870,
      "less": 871,
      "xt": 872,
      "ĠMountain": 873,
      "ere": 874,
      "ps": 875,
      "other": 876,
      "Ġabove": 877,
      "Ġmountain": 878,
      "Ġhimself": 879,
      "Ġsudden": 880,
      "ĠMr": 881,
      "Ġnear": 882,
      "Ġsomething": 883,
      "Ġwo": 884,
      "Ġcour": 885,
      "Ġfrie": 886,
      "Ġfriend": 887,
      "ber": 888,
      "int": 889,
      "Ġhor": 890,
      "Ġfeet": 891,
      "outh": 892,
      "Ġcar": 893,
      "Ġthings": 894,
      "aug": 895,
      "Ġopen": 896,
      "Ġadv": 897,
      "Ġper": 898,
      "Ġyet": 899,
      "Ġplace": 900,
      "ped": 901,
      "Ġcreat": 902,
      "Ġmen": 903,
      "Ġhel": 904,
      "Ġseen": 905,
      "Ġsk": 906,
      "Ġbus": 907,
      "Ġriver": 908,
      "Ġtree": 909,
      "ci": 910,
      "igh": 911,
      "ĠThat": 912,
      "Ġonce": 913,
      "ever": 914,
      "ness": 915,
      "Ġlay": 916,
      "Ġbec": 917,
      "ĠAs": 918,
      "aking": 919,
      "Ġuntil": 920,
      "aw": 921,
      "orn": 922,
      "ched": 923,
      "ĠInd": 924,
      "Ġwithout": 925,
      "pect": 926,
      "Ġhard": 927,
      "gs": 928,
      "ls": 929,
      "Ġalong": 930,
      "ĠBe": 931,
      "Ġbegan": 932,
      "Ġsil": 933,
      "Ġcall": 934,
      "ili": 935,
      "Ġfeel": 936,
      "Ġcomp": 937,
      "It": 938,
      "ale": 939,
      "air": 940,
      "Ġtal": 941,
      "Ġimp": 942,
      "Ġdist": 943,
      "Ġput": 944,
      "Ġdeep": 945,
      "ms": 946,
      "ife": 947,
      "Ġgoing": 948,
      "ign": 949,
      "What": 950,
      "ho": 951,
      "ab": 952,
      "Ġcried": 953,
      "oth": 954,
      "Ġsupp": 955,
      "ult": 956,
      "Ġforest": 957,
      "per": 958,
      "Ġed": 959,
      "ird": 960,
      "here": 961,
      "Ġste": 962,
      "Ġsame": 963,
      "ily": 964,
      "ress": 965,
      "Ġmor": 966,
      "Ġdiff": 967,
      "Ġsmall": 968,
      "Ġpath": 969,
      "Ġblack": 970,
      "Ġsat": 971,
      "ible": 972,
      "we": 973,
      "Ġfall": 974,
      "ons": 975,
      "ĠBagg": 976,
      "aught": 977,
      "Ġdays": 978,
      "ople": 979,
      "ĠIndi": 980,
      "ĠBaggins": 981,
      "ew": 982,
      "Ġtake": 983,
      "Ġword": 984,
      "Ġchan": 985,
      "Ġmom": 986,
      "ont": 987,
      "Ġland": 988,
      "Ġthose": 989,
      "Ġrun": 990,
      "Ġnew": 991,
      "Ġmoment": 992,
      "lo": 993,
      "Ġsur": 994,
      "Ġface": 995,
      "Ġred": 996,
      "Ġcourse": 997,
      "ail": 998,
      "co": 999,
      "ied": 1000,
      "ild": 1001,
      "Ġcur": 1002,
      "ĠSm": 1003,
      "ĠNow": 1004,
      "Ġacross": 1005,
      "hen": 1006,
      "Ġap": 1007,
      "ined": 1008,
      "Ġwant": 1009,
      "oud": 1010,
      "Ġmat": 1011,
      "Ġhigh": 1012,
      "Ġasked": 1013,
      "Ġhelp": 1014,
      "Ġbre": 1015,
      "ary": 1016,
      "ĠAt": 1017,
      "Ġquite": 1018,
      "Ġtook": 1019,
      "Ġmorning": 1020,
      "Ġsun": 1021,
      "Ġcamp": 1022,
      "Ġind": 1023,
      "Ġeach": 1024,
      "Ġres": 1025,
      "ĠSmaug": 1026,
      "lt": 1027,
      "row": 1028,
      "so": 1029,
      "Ġyoung": 1030,
      "Ġanother": 1031,
      "ards": 1032,
      "unn": 1033,
      "ollum": 1034,
      "Ġwonder": 1035,
      "men": 1036,
      "Ġob": 1037,
      "Ġlow": 1038,
      "Ġgive": 1039,
      "rible": 1040,
      "ĠGollum": 1041,
      "Ġturned": 1042,
      "sw": 1043,
      "Ġlar": 1044,
      "Ġlife": 1045,
      "alin": 1046,
      "Ġenough": 1047,
      "Ġsuddenly": 1048,
      "av": 1049,
      "ks": 1050,
      "thing": 1051,
      "Ġtell": 1052,
      "Ġair": 1053,
      "Ġwr": 1054,
      "Ġsn": 1055,
      "Ġcount": 1056,
      "aster": 1057,
      "att": 1058,
      "Ġansw": 1059,
      "ĠWhat": 1060,
      "Ġgold": 1061,
      "Ġpeople": 1062,
      "gether": 1063,
      "Ġclear": 1064,
      "ince": 1065,
      "Ġwar": 1066,
      "Ġlet": 1067,
      "Ġhalf": 1068,
      "Ġshad": 1069,
      "ost": 1070,
      "Ġsound": 1071,
      "oub": 1072,
      "Ġfoll": 1073,
      "ase": 1074,
      "ĠIf": 1075,
      "ange": 1076,
      "Ġvo": 1077,
      "Ġcont": 1078,
      "Ġlost": 1079,
      "ready": 1080,
      "Ġwait": 1081,
      "We": 1082,
      "oor": 1083,
      "Ġes": 1084,
      "Ġsing": 1085,
      "Ġbit": 1086,
      "ished": 1087,
      "Ġbeing": 1088,
      "Ġthree": 1089,
      "Well": 1090,
      "Ġset": 1091,
      "Ġdire": 1092,
      "imb": 1093,
      "illed": 1094,
      "Ġbrought": 1095,
      "Ġothers": 1096,
      "aves": 1097,
      "gg": 1098,
      "Ġwall": 1099,
      "ret": 1100,
      "orm": 1101,
      "ĠThis": 1102,
      "Ġground": 1103,
      "Ġwhole": 1104,
      "Ġedge": 1105,
      "Ġmind": 1106,
      "Ġhall": 1107,
      "idd": 1108,
      "Ġel": 1109,
      "Ġking": 1110,
      "Ġquick": 1111,
      "ways": 1112,
      "ĠOn": 1113,
      "Ġdirect": 1114,
      "ĠK": 1115,
      "Ġdone": 1116,
      "ief": 1117,
      "ause": 1118,
      "orth": 1119,
      "Ġpoint": 1120,
      "cc": 1121,
      "oke": 1122,
      "Ġche": 1123,
      "ens": 1124,
      "ider": 1125,
      "Ġret": 1126,
      "Ġreally": 1127,
      "Ġslow": 1128,
      "cl": 1129,
      "ey": 1130,
      "ock": 1131,
      "ty": 1132,
      "Ġhapp": 1133,
      "Ġpon": 1134,
      "Ġgave": 1135,
      "selves": 1136,
      "ken": 1137,
      "ying": 1138,
      "Ġmis": 1139,
      "ott": 1140,
      "Ġthing": 1141,
      "Ġfew": 1142,
      "Ġalso": 1143,
      "Ġstrange": 1144,
      "Ġremem": 1145,
      "Ġmountains": 1146,
      "fort": 1147,
      "Ġshe": 1148,
      "Ġbro": 1149,
      "Ġfull": 1150,
      "Ġdoub": 1151,
      "Ġtowards": 1152,
      "Ġfront": 1153,
      "Ġalways": 1154,
      "ush": 1155,
      "Ġcliff": 1156,
      "Ġhands": 1157,
      "Ġhuge": 1158,
      "ches": 1159,
      "Ġtill": 1160,
      "Ġwind": 1161,
      "Ġsort": 1162,
      "res": 1163,
      "Ġfo": 1164,
      "Ġgone": 1165,
      "Ġring": 1166,
      "aces": 1167,
      "Ġrep": 1168,
      "Ġsure": 1169,
      "Ġadvent": 1170,
      "Ġappe": 1171,
      "Ġsince": 1172,
      "ndred": 1173,
      "Ġbur": 1174,
      "ition": 1175,
      "ash": 1176,
      "Ġacc": 1177,
      "Ġguess": 1178,
      "eed": 1179,
      "Ġent": 1180,
      "Ġter": 1181,
      "Ġbar": 1182,
      "ering": 1183,
      "Ġheart": 1184,
      "owing": 1185,
      "Ġalready": 1186,
      "Ġhope": 1187,
      "Ġknew": 1188,
      "Ġgreen": 1189,
      "Ġbelow": 1190,
      "Ġfriends": 1191,
      "bur": 1192,
      "ience": 1193,
      "Ġtunn": 1194,
      "Ġbird": 1195,
      "ory": 1196,
      "leep": 1197,
      "Ġuse": 1198,
      "Ġstood": 1199,
      "Ġstone": 1200,
      "Ġwhite": 1201,
      "Ġsec": 1202,
      "Ġworld": 1203,
      "Ġexpl": 1204,
      "Ġhundred": 1205,
      "Ġkeep": 1206,
      "Ġbetter": 1207,
      "aid": 1208,
      "Ġser": 1209,
      "ery": 1210,
      "Ġlake": 1211,
      "anger": 1212,
      "ute": 1213,
      "ained": 1214,
      "Ġclimb": 1215,
      "Ġcold": 1216,
      "Ġbetwe": 1217,
      "Ġbetween": 1218,
      "man": 1219,
      "sed": 1220,
      "Ġbig": 1221,
      "ical": 1222,
      "iles": 1223,
      "ĠAll": 1224,
      "ching": 1225,
      "Ġnext": 1226,
      "Ġplate": 1227,
      "Ġagainst": 1228,
      "ĠFor": 1229,
      "fe": 1230,
      "ones": 1231,
      "Ġdanger": 1232,
      "Ġtogether": 1233,
      "Ġhear": 1234,
      "str": 1235,
      "Ġstart": 1236,
      "ushed": 1237,
      "bled": 1238,
      "Ġquest": 1239,
      "ertain": 1240,
      "Ġlarge": 1241,
      "Ġact": 1242,
      "Ġwal": 1243,
      "Ġmon": 1244,
      "Ġtor": 1245,
      "Ġfelt": 1246,
      "Ġexce": 1247,
      "Ġmoon": 1248,
      "Ġpres": 1249,
      "Ġbreak": 1250,
      "Ġreturn": 1251,
      "Ġdoubt": 1252,
      "Ġtunnel": 1253,
      "Ġplateau": 1254,
      "cious": 1255,
      "Ġfur": 1256,
      "Ġhur": 1257,
      "Ġatt": 1258,
      "ific": 1259,
      "Ġmyself": 1260,
      "Ġspr": 1261,
      "Ġjo": 1262,
      "Ġcoming": 1263,
      "dy": 1264,
      "ged": 1265,
      "uff": 1266,
      "Ġbest": 1267,
      "Ġfact": 1268,
      "Ġcare": 1269,
      "Ġtop": 1270,
      "Ġhum": 1271,
      "Ġgi": 1272,
      "Ġstand": 1273,
      "ĠBalin": 1274,
      "ady": 1275,
      "ular": 1276,
      "Ġapp": 1277,
      "Ġwiz": 1278,
      "Ġsign": 1279,
      "haps": 1280,
      "ouse": 1281,
      "Ġnor": 1282,
      "Ġra": 1283,
      "ump": 1284,
      "Ġleast": 1285,
      "Ġexpect": 1286,
      "itting": 1287,
      "Ġstrong": 1288,
      "ĠIndians": 1289,
      "But": 1290,
      "hy": 1291,
      "ither": 1292,
      "Ġple": 1293,
      "Ġnat": 1294,
      "ombur": 1295,
      "ict": 1296,
      "Ġstream": 1297,
      "ets": 1298,
      "ĠHis": 1299,
      "Ġkind": 1300,
      "Ġcons": 1301,
      "Ġcompan": 1302,
      "not": 1303,
      "ori": 1304,
      "Ġev": 1305,
      "ĠBombur": 1306,
      "Ġmean": 1307,
      "Ġneed": 1308,
      "Ġused": 1309,
      "Ġposs": 1310,
      "Ġhowever": 1311,
      "Ġpassed": 1312,
      "Ġvoice": 1313,
      "aut": 1314,
      "ier": 1315,
      "iet": 1316,
      "light": 1317,
      "wood": 1318,
      "yond": 1319,
      "Ġwide": 1320,
      "Ġcaught": 1321,
      "Ġcertain": 1322,
      "its": 1323,
      "Ġforward": 1324,
      "ĠWhen": 1325,
      "Ġlooking": 1326,
      "Ġhorrible": 1327,
      "Ġcreatures": 1328,
      "Ġmatter": 1329,
      "Ġesc": 1330,
      "most": 1331,
      "od": 1332,
      "Ġsir": 1333,
      "rew": 1334,
      "Ġtown": 1335,
      "Ġless": 1336,
      "Ġinside": 1337,
      "ently": 1338,
      "ĠSt": 1339,
      "ĠSouth": 1340,
      "Ġjour": 1341,
      "Ġsword": 1342,
      "gr": 1343,
      "ip": 1344,
      "pr": 1345,
      "iness": 1346,
      "Ġfour": 1347,
      "ene": 1348,
      "vered": 1349,
      "Ġdead": 1350,
      "ĠNo": 1351,
      "Ġgrew": 1352,
      "Ġwizard": 1353,
      "ned": 1354,
      "Ġaw": 1355,
      "Ġfood": 1356,
      "Ġcre": 1357,
      "lls": 1358,
      "Ġtold": 1359,
      "Ġpers": 1360,
      "Ġeat": 1361,
      "Ġyell": 1362,
      "irc": 1363,
      "Ġang": 1364,
      "ĠSome": 1365,
      "Ġshout": 1366,
      "Ġfear": 1367,
      "Ġanything": 1368,
      "Ġbelie": 1369,
      "Ġwoods": 1370,
      "Ġhardly": 1371,
      "ĠBeorn": 1372,
      "Ġdirection": 1373,
      "Ġponies": 1374,
      "iv": 1375,
      "ually": 1376,
      "Ġocc": 1377,
      "ised": 1378,
      "Ġbeyond": 1379,
      "Ġelves": 1380,
      "ots": 1381,
      "Ġask": 1382,
      "alley": 1383,
      "ĠRo": 1384,
      "anches": 1385,
      "Ġcreature": 1386,
      "Ġbecause": 1387,
      "Ġslowly": 1388,
      "ject": 1389,
      "Ġbank": 1390,
      "ison": 1391,
      "ors": 1392,
      "Ġem": 1393,
      "Ġeag": 1394,
      "Ġthick": 1395,
      "imal": 1396,
      "ool": 1397,
      "Ġanimal": 1398,
      "ĠAfter": 1399,
      "rib": 1400,
      "Ġbranches": 1401,
      "Ġmove": 1402,
      "Ġgetting": 1403,
      "Ġunderst": 1404,
      "ully": 1405,
      "Ġboat": 1406,
      "ney": 1407,
      "Ġsong": 1408,
      "ited": 1409,
      "Ġmar": 1410,
      "Ġmiles": 1411,
      "Ġnar": 1412,
      "Ġye": 1413,
      "Ġrif": 1414,
      "Ġrather": 1415,
      "Ġsto": 1416,
      "ached": 1417,
      "Ġvalley": 1418,
      "ĠFr": 1419,
      "ize": 1420,
      "Ġcalled": 1421,
      "Ġjourney": 1422,
      "li": 1423,
      "Ġsit": 1424,
      "Ġsitting": 1425,
      "Ġfair": 1426,
      "Ġcirc": 1427,
      "ense": 1428,
      "icult": 1429,
      "Ġreal": 1430,
      "Ġneare": 1431,
      "aken": 1432,
      "Ġscr": 1433,
      "Ġsuppose": 1434,
      "Ġdifficult": 1435,
      "Ġcountry": 1436,
      "Ġremember": 1437,
      "ix": 1438,
      "Ġide": 1439,
      "Ġape": 1440,
      "Ġboth": 1441,
      "Ġname": 1442,
      "Ġru": 1443,
      "ĠLake": 1444,
      "Ġquiet": 1445,
      "ĠNot": 1446,
      "ĠFili": 1447,
      "Ġindeed": 1448,
      "Ġbarre": 1449,
      "ces": 1450,
      "ĠY": 1451,
      "Ġwild": 1452,
      "Ġbu": 1453,
      "Ġloud": 1454,
      "asure": 1455,
      "Ġinst": 1456,
      "ater": 1457,
      "Ġbeard": 1458,
      "ents": 1459,
      "Ġhold": 1460,
      "Ġpock": 1461,
      "icked": 1462,
      "Ġbegin": 1463,
      "Ġbusiness": 1464,
      "Ġtalk": 1465,
      "And": 1466,
      "fully": 1467,
      "ives": 1468,
      "ple": 1469,
      "Ġsent": 1470,
      "Ġsqu": 1471,
      "Ġled": 1472,
      "Ġluck": 1473,
      "Ġris": 1474,
      "Ġran": 1475,
      "Ġsafe": 1476,
      "Ġshot": 1477,
      "Ġago": 1478,
      "Ġroll": 1479,
      "aped": 1480,
      "Ġopened": 1481,
      "Ġbelieve": 1482,
      "No": 1483,
      "day": 1484,
      "wh": 1485,
      "Ġte": 1486,
      "Ġsleep": 1487,
      "Ġmark": 1488,
      "Ġdream": 1489,
      "aring": 1490,
      "Ġhour": 1491,
      "Ġhung": 1492,
      "Ġeas": 1493,
      "Ġear": 1494,
      "Ġref": 1495,
      "aged": 1496,
      "Ġlegs": 1497,
      "Ġdoes": 1498,
      "pping": 1499,
      "Ġalmost": 1500,
      "Ġabs": 1501,
      "Ġfloor": 1502,
      "Ġfellow": 1503,
      "Ġnearly": 1504,
      "Ġdistance": 1505,
      "ably": 1506,
      "Ġdiffere": 1507,
      "'ll": 1508,
      "awn": 1509,
      "ient": 1510,
      "Ġ'": 1511,
      "Ġsight": 1512,
      "Ġbes": 1513,
      "Ġfast": 1514,
      "Ġfilled": 1515,
      "Ġmag": 1516,
      "Ġdro": 1517,
      "Ġhouse": 1518,
      "ides": 1519,
      "ĠTo": 1520,
      "iled": 1521,
      "ĠAmer": 1522,
      "Ġwhether": 1523,
      "Ġexc": 1524,
      "Ġeye": 1525,
      "Ġfeeling": 1526,
      "ĠAmeric": 1527,
      "ipped": 1528,
      "ner": 1529,
      "ror": 1530,
      "where": 1531,
      "ĠU": 1532,
      "Ġtall": 1533,
      "ining": 1534,
      "Ġbene": 1535,
      "Ġhome": 1536,
      "Ġhun": 1537,
      "Ġinter": 1538,
      "Ġheav": 1539,
      "Ġass": 1540,
      "Ġfright": 1541,
      "Ġshort": 1542,
      "Ġoutside": 1543,
      "Ġord": 1544,
      "Ġlead": 1545,
      "Ġleave": 1546,
      "Ġlonger": 1547,
      "Ġcomm": 1548,
      "Ġprecious": 1549,
      "Ġremark": 1550,
      "Ġimag": 1551,
      "Ġwords": 1552,
      "Ġelse": 1553,
      "Ġfurther": 1554,
      "Ġperson": 1555,
      "fast": 1556,
      "land": 1557,
      "pl": 1558,
      "ping": 1559,
      "ured": 1560,
      "Ġwand": 1561,
      "Ġlist": 1562,
      "Ġline": 1563,
      "ason": 1564,
      "Ġher": 1565,
      "Ġbeast": 1566,
      "Ġstones": 1567,
      "Ġrest": 1568,
      "Ġthemselves": 1569,
      "Ġlived": 1570,
      "Ġalone": 1571,
      "Ġclose": 1572,
      "Ġdwarf": 1573,
      "Ġchar": 1574,
      "xton": 1575,
      "erest": 1576,
      "Ġchance": 1577,
      "Ġlands": 1578,
      "Ġanswer": 1579,
      "ĠRoxton": 1580,
      "Ġidea": 1581,
      "ced": 1582,
      "ired": 1583,
      "Ġtro": 1584,
      "ern": 1585,
      "Ġyes": 1586,
      "Ġthin": 1587,
      "Ġwhy": 1588,
      "Ġwhis": 1589,
      "Ġforg": 1590,
      "ĠWh": 1591,
      "Ġpoor": 1592,
      "Ġblue": 1593,
      "ations": 1594,
      "Ġarms": 1595,
      "Ġenorm": 1596,
      "Ġwork": 1597,
      "ized": 1598,
      "Ġrocks": 1599,
      "Ġopening": 1600,
      "Ġbreakfast": 1601,
      "Ġunderstand": 1602,
      "Ġenormous": 1603,
      "),": 1604,
      "That": 1605,
      "apped": 1606,
      "br": 1607,
      "ru": 1608,
      "to": 1609,
      "the": 1610,
      "nded": 1611,
      "Ġfol": 1612,
      "Ġcross": 1613,
      "Ġdread": 1614,
      "Ġgat": 1615,
      "ored": 1616,
      "Ġnoise": 1617,
      "ĠGo": 1618,
      "Ġinterest": 1619,
      "Ġspoke": 1620,
      "Ġbring": 1621,
      "bling": 1622,
      "Ġarm": 1623,
      "Ġevening": 1624,
      "Ġdisc": 1625,
      "osed": 1626,
      "Ġchair": 1627,
      "Ġkept": 1628,
      "Ġchief": 1629,
      "Ġstopped": 1630,
      "Ġbeneath": 1631,
      "gl": 1632,
      "ser": 1633,
      "sing": 1634,
      "Ġtaken": 1635,
      "Ġable": 1636,
      "inted": 1637,
      "Ġwon": 1638,
      "Ġbad": 1639,
      "Ġmin": 1640,
      "Ġmet": 1641,
      "Ġmaking": 1642,
      "eng": 1643,
      "Ġhill": 1644,
      "ating": 1645,
      "Ġbeaut": 1646,
      "idge": 1647,
      "iders": 1648,
      "ĠBard": 1649,
      "aint": 1650,
      "Ġspiders": 1651,
      "iew": 1652,
      "ield": 1653,
      "Ġcannot": 1654,
      "Ġgrass": 1655,
      "ĠEl": 1656,
      "Ġdarkness": 1657,
      "Ġcrack": 1658,
      "Ġcarried": 1659,
      "Ġsurpr": 1660,
      "Ġshadows": 1661,
      "Ġfoot": 1662,
      "com": 1663,
      "ope": 1664,
      "hered": 1665,
      "Ġcat": 1666,
      "Ġcry": 1667,
      "asion": 1668,
      "Ġpat": 1669,
      "Ġnone": 1670,
      "Ġmeet": 1671,
      "ĠMal": 1672,
      "Ġroad": 1673,
      "Ġtrou": 1674,
      "appe": 1675,
      "Ġtreasure": 1676,
      "Ġheads": 1677,
      "Ġdisco": 1678,
      "Ġspeak": 1679,
      "Ġcarry": 1680,
      "Ġangry": 1681,
      "Ġyears": 1682,
      "tr": 1683,
      "that": 1684,
      "Ġwish": 1685,
      "nding": 1686,
      "Ġfly": 1687,
      "Ġcut": 1688,
      "Ġcol": 1689,
      "Ġmouth": 1690,
      "ashed": 1691,
      "Ġhair": 1692,
      "Ġheld": 1693,
      "ident": 1694,
      "ores": 1695,
      "ift": 1696,
      "iful": 1697,
      "ĠWith": 1698,
      "Ġspl": 1699,
      "Ġvis": 1700,
      "Ġtrue": 1701,
      "Ġperhaps": 1702,
      "Ġserv": 1703,
      "Ġquestion": 1704,
      "ĠFrom": 1705,
      "He": 1706,
      "ape": 1707,
      "mit": 1708,
      "ĠZ": 1709,
      "Ġcent": 1710,
      "Ġcap": 1711,
      "Ġcaves": 1712,
      "Ġmer": 1713,
      "Ġpin": 1714,
      "utt": 1715,
      "vel": 1716,
      "Ġones": 1717,
      "imp": 1718,
      "veral": 1719,
      "ĠBy": 1720,
      "enty": 1721,
      "Ġreached": 1722,
      "Ġseveral": 1723,
      "ĠSu": 1724,
      "Ġdec": 1725,
      "used": 1726,
      "Ġcomfort": 1727,
      "ĠOne": 1728,
      "Ġshar": 1729,
      "Ġguard": 1730,
      "There": 1731,
      "ĠSoon": 1732,
      "teen": 1733,
      "Ġbushes": 1734,
      "cially": 1735,
      "Ġwonderful": 1736,
      "attle": 1737,
      "iddle": 1738,
      "ĠKili": 1739,
      "Ġhuman": 1740,
      "ĠMalone": 1741,
      "ald": 1742,
      "iam": 1743,
      "no": 1744,
      "oes": 1745,
      "Ġadd": 1746,
      "reed": 1747,
      "Ġbott": 1748,
      "Ġcase": 1749,
      "Ġhat": 1750,
      "Ġpur": 1751,
      "ower": 1752,
      "Ġeff": 1753,
      "Ġstep": 1754,
      "Ġwithin": 1755,
      "ĠTheir": 1756,
      "Ġreason": 1757,
      "ains": 1758,
      "ages": 1759,
      "ĠHow": 1760,
      "ĠMy": 1761,
      "ĠMaster": 1762,
      "Ġroom": 1763,
      "Ġrope": 1764,
      "ately": 1765,
      "ĠEven": 1766,
      "Ġglo": 1767,
      "Ġgoblin": 1768,
      "Ġsky": 1769,
      "Ġanswered": 1770,
      "Ġfollowed": 1771,
      "Ġadventures": 1772,
      "Ġbirds": 1773,
      "Ġpleas": 1774,
      "Ġconsider": 1775,
      "Ġcertainly": 1776,
      "Ġshouted": 1777,
      "Ġdifferent": 1778,
      "Ġheavy": 1779,
      "Very": 1780,
      "ek": 1781,
      "up": 1782,
      "ual": 1783,
      "head": 1784,
      "Ġbreat": 1785,
      "Ġfig": 1786,
      "Ġfive": 1787,
      "ener": 1788,
      "Ġdet": 1789,
      "Ġdare": 1790,
      "Ġinc": 1791,
      "Ġins": 1792,
      "ative": 1793,
      "imes": 1794,
      "Ġform": 1795,
      "ames": 1796,
      "body": 1797,
      "umped": 1798,
      "umbled": 1799,
      "Ġdev": 1800,
      "Ġdeal": 1801,
      "Ġseem": 1802,
      "Ġtry": 1803,
      "Ġgrow": 1804,
      "Ġdrink": 1805,
      "olves": 1806,
      "ĠDori": 1807,
      "Ġwatch": 1808,
      "Ġdesc": 1809,
      "Ġbecame": 1810,
      "Ġrifle": 1811,
      "like": 1812,
      "Ġbeside": 1813,
      "Ġbeautiful": 1814,
      "Ġsharp": 1815,
      "but": 1816,
      "cha": 1817,
      "pes": 1818,
      "ten": 1819,
      "Ġfat": 1820,
      "Ġfather": 1821,
      "Ġmap": 1822,
      "Ġoften": 1823,
      "Ġdri": 1824,
      "Ġlau": 1825,
      "Ġinv": 1826,
      "Ġgate": 1827,
      "Ġbear": 1828,
      "Ġele": 1829,
      "Ġitself": 1830,
      "iling": 1831,
      "Ġmem": 1832,
      "ĠWill": 1833,
      "asty": 1834,
      "Ġsub": 1835,
      "Ġlear": 1836,
      "Ġalive": 1837,
      "arth": 1838,
      "ants": 1839,
      "Ġsmo": 1840,
      "Ġcoll": 1841,
      "ĠDale": 1842,
      "Ġexper": 1843,
      "ddenly": 1844,
      "Ġsilver": 1845,
      "ĠIndian": 1846,
      "Ġnews": 1847,
      "Ġadventure": 1848,
      "ĠSuddenly": 1849,
      "Ġlaugh": 1850,
      ").": 1851,
      "Th": 1852,
      "aver": 1853,
      "oss": 1854,
      "Ġtable": 1855,
      "Ġwolves": 1856,
      "Ġfam": 1857,
      "Ġfif": 1858,
      "Ġfier": 1859,
      "Ġcave": 1860,
      "Ġready": 1861,
      "Ġmeant": 1862,
      "Ġneck": 1863,
      "ries": 1864,
      "Ġbright": 1865,
      "Ġamid": 1866,
      "els": 1867,
      "Ġdraw": 1868,
      "Ġconf": 1869,
      "Ġprison": 1870,
      "Ġsilence": 1871,
      "Ġrunning": 1872,
      "Ġcontin": 1873,
      "Ġsecret": 1874,
      "Ġnarrow": 1875,
      "Ġbeginning": 1876,
      "aight": 1877,
      "bered": 1878,
      "ges": 1879,
      "ub": 1880,
      "yed": 1881,
      "Ġtried": 1882,
      "Ġaf": 1883,
      "Ġfin": 1884,
      "Ġfight": 1885,
      "Ġlate": 1886,
      "Ġhang": 1887,
      "Ġgle": 1888,
      "let": 1889,
      "uth": 1890,
      "Ġearth": 1891,
      "ices": 1892,
      "ĠâĢĺ": 1893,
      "Ġstre": 1894,
      "Ġreg": 1895,
      "Ġbridge": 1896,
      "Ġrose": 1897,
      "icking": 1898,
      "Ġsmell": 1899,
      "Ġscient": 1900,
      "Ġdisappe": 1901,
      "Ġwaiting": 1902,
      "Ġbroken": 1903,
      "Ġappear": 1904,
      "Ġburgl": 1905,
      "Ġdangerous": 1906,
      "Ġoccasion": 1907,
      "Ġdreadful": 1908,
      "ĠGobl": 1909,
      "Ġgleam": 1910,
      "Ġscientific": 1911,
      "'ve": 1912,
      "ib": 1913,
      "ued": 1914,
      "what": 1915,
      "Ġwond": 1916,
      "Ġbow": 1917,
      "ening": 1918,
      "Ġhood": 1919,
      "Ġhaving": 1920,
      "Ġincl": 1921,
      "Ġpal": 1922,
      "Ġpack": 1923,
      "Ġnum": 1924,
      "Ġnasty": 1925,
      "anch": 1926,
      "lew": 1927,
      "Ġeither": 1928,
      "ime": 1929,
      "ĠThese": 1930,
      "ention": 1931,
      "ters": 1932,
      "Ġtherefore": 1933,
      "Ġleaves": 1934,
      "Ġdoing": 1935,
      "Ġdear": 1936,
      "Ġtrun": 1937,
      "Ġtimes": 1938,
      "Ġslipped": 1939,
      "Ġarg": 1940,
      "Ġsilent": 1941,
      "Ġfallen": 1942,
      "Ġobser": 1943,
      "attered": 1944,
      "Ġshadow": 1945,
      "otten": 1946,
      "Ġappeared": 1947,
      "Ġclimbed": 1948,
      "Ġstarted": 1949,
      "Ġgiven": 1950,
      "Ġfolk": 1951,
      "Ġtrouble": 1952,
      "ĠWilliam": 1953,
      "Now": 1954,
      "Qu": 1955,
      "aim": 1956,
      "abb": 1957,
      "kn": 1958,
      "ron": 1959,
      "ugg": 1960,
      "Ġtou": 1961,
      "Ġson": 1962,
      "Ġcou": 1963,
      "Ġmess": 1964,
      "Ġdim": 1965,
      "Ġdrew": 1966,
      "Ġlad": 1967,
      "Ġpu": 1968,
      "Ġpast": 1969,
      "Ġpale": 1970,
      "Ġgro": 1971,
      "Ġgaz": 1972,
      "utes": 1973,
      "ster": 1974,
      "oof": 1975,
      "ĠBert": 1976,
      "Ġrec": 1977,
      "Ġread": 1978,
      "ĠAl": 1979,
      "Ġourselves": 1980,
      "Ġview": 1981,
      "Ġhole": 1982,
      "Ġstraight": 1983,
      "Ġcond": 1984,
      "Ġglad": 1985,
      "ments": 1986,
      "Ġgolden": 1987,
      "Ġsingle": 1988,
      "Ġterrible": 1989,
      "Ġsecond": 1990,
      "Ġstanding": 1991,
      "Ġmagic": 1992,
      "Ġfierce": 1993,
      "Don": 1994,
      "ah": 1995,
      "ex": 1996,
      "eer": 1997,
      "ial": 1998,
      "ler": 1999,
      "sh": 2000,
      "under": 2001,
      "Ġver": 2002,
      "Ġwings": 2003,
      "Ġsize": 2004,
      "ren": 2005,
      "Ġmid": 2006,
      "Ġlaug": 2007,
      "Ġgun": 2008,
      "Ġgener": 2009,
      "Ġheight": 2010,
      "otted": 2011,
      "Ġyards": 2012,
      "Ġstay": 2013,
      "entle": 2014,
      "Ġreach": 2015,
      "Ġshow": 2016,
      "Ġbranch": 2017,
      "Ġplaces": 2018,
      "akes": 2019,
      "Ġsmoke": 2020,
      "iously": 2021,
      "Ġexped": 2022,
      "Ġlove": 2023,
      "Ġpassage": 2024,
      "ĠRiver": 2025,
      "Ġparts": 2026,
      "Ġkey": 2027,
      "Ġtalking": 2028,
      "Ġhappened": 2029,
      "Ġguessed": 2030,
      "Ġexcept": 2031,
      "Ġescape": 2032,
      "Ġempt": 2033,
      "Ġbarrels": 2034,
      "Ġinstant": 2035,
      "Ġtrolls": 2036,
      "Ġbottom": 2037,
      "Ġlaughed": 2038,
      "'m": 2039,
      "fect": 2040,
      "ian": 2041,
      "ny": 2042,
      "of": 2043,
      "Ġfine": 2044,
      "Ġcorn": 2045,
      "Ġmad": 2046,
      "Ġmist": 2047,
      "Ġmiddle": 2048,
      "Ġlying": 2049,
      "Ġhon": 2050,
      "Ġhig": 2051,
      "Ġpar": 2052,
      "Ġpict": 2053,
      "ided": 2054,
      "Ġrushed": 2055,
      "irk": 2056,
      "alth": 2057,
      "Ġrel": 2058,
      "pecially": 2059,
      "Ġmeans": 2060,
      "Ġshut": 2061,
      "Ġexist": 2062,
      "Ġspider": 2063,
      "aked": 2064,
      "aple": 2065,
      "Ġgrim": 2066,
      "ĠPer": 2067,
      "Ġprep": 2068,
      "Ġfellah": 2069,
      "Ġparty": 2070,
      "ude": 2071,
      "Ġsteep": 2072,
      "Ġsurely": 2073,
      "Ġaccount": 2074,
      "Ġtorches": 2075,
      "Ġpresent": 2076,
      "ĠStill": 2077,
      "Ġcrept": 2078,
      "Ġsongs": 2079,
      "Ġcircle": 2080,
      "Ġnearer": 2081,
      "Ġpocket": 2082,
      "Ġdropped": 2083,
      "ĠWhite": 2084,
      "ossible": 2085,
      "known": 2086,
      "Not": 2087,
      "aving": 2088,
      "be": 2089,
      "cess": 2090,
      "face": 2091,
      "sion": 2092,
      "Ġve": 2093,
      "Ġtaking": 2094,
      "inary": 2095,
      "Ġbound": 2096,
      "Ġbattle": 2097,
      "Ġfaces": 2098,
      "orrow": 2099,
      "Ġleng": 2100,
      "Ġinf": 2101,
      "Ġnorth": 2102,
      "aned": 2103,
      "owers": 2104,
      "idence": 2105,
      "icular": 2106,
      "Ġstars": 2107,
      "Ġstuck": 2108,
      "aced": 2109,
      "Ġforth": 2110,
      "Ġsave": 2111,
      "ambo": 2112,
      "Ġmere": 2113,
      "Ġshining": 2114,
      "unning": 2115,
      "ĠWell": 2116,
      "Ġkilled": 2117,
      "Ġlive": 2118,
      "ĠMirk": 2119,
      "ĠHere": 2120,
      "Ġdep": 2121,
      "usted": 2122,
      "Ġclaim": 2123,
      "Ġplain": 2124,
      "Ġamaz": 2125,
      "Ġtrack": 2126,
      "Ġknown": 2127,
      "Ġpol": 2128,
      "Ġdry": 2129,
      "Ġcomr": 2130,
      "olute": 2131,
      "Ġshare": 2132,
      "Ġswift": 2133,
      "ĠJust": 2134,
      "aughter": 2135,
      "Ġfollow": 2136,
      "Ġentr": 2137,
      "Ġpossible": 2138,
      "Ġyellow": 2139,
      "Ġeager": 2140,
      "Ġgathered": 2141,
      "Ġgloom": 2142,
      "ĠMirkwood": 2143,
      "Why": 2144,
      "cul": 2145,
      "ien": 2146,
      "ns": 2147,
      "night": 2148,
      "ug": 2149,
      "uct": 2150,
      "well": 2151,
      "ze": 2152,
      "Ġsne": 2153,
      "Ġbed": 2154,
      "Ġfish": 2155,
      "Ġmaster": 2156,
      "orge": 2157,
      "Ġpter": 2158,
      "Ġpie": 2159,
      "Ġpull": 2160,
      "Ġpushed": 2161,
      "Ġgas": 2162,
      "Ġgentle": 2163,
      "any": 2164,
      "ĠTom": 2165,
      "Ġrough": 2166,
      "Ġrace": 2167,
      "Ġstud": 2168,
      "acle": 2169,
      "Ġwhom": 2170,
      "etch": 2171,
      "Ġsear": 2172,
      "tering": 2173,
      "Ġshore": 2174,
      "Ġliked": 2175,
      "ĠMaple": 2176,
      "ĠGreat": 2177,
      "ĠGate": 2178,
      "Ġclosed": 2179,
      "Ġplan": 2180,
      "Ġtruth": 2181,
      "Ġlikely": 2182,
      "Ġcomes": 2183,
      "ĠEast": 2184,
      "ĠEng": 2185,
      "Ġscience": 2186,
      "Ġpret": 2187,
      "Ġprom": 2188,
      "Ġprot": 2189,
      "Ġgrey": 2190,
      "They": 2191,
      "Ġsometimes": 2192,
      "Ġdragons": 2193,
      "ĠBefore": 2194,
      "Ġimpossible": 2195,
      "Ġsupper": 2196,
      "Ġwalls": 2197,
      "Ġwalked": 2198,
      "Ġspring": 2199,
      "Ġsprang": 2200,
      "Ġcompanions": 2201,
      "Ġescaped": 2202,
      "which": 2203,
      "Ġabsolute": 2204,
      "Ġflying": 2205,
      "ĠZambo": 2206,
      "Ġfigure": 2207,
      "Ġprisoners": 2208,
      "Ġburglar": 2209,
      "Come": 2210,
      "by": 2211,
      "ging": 2212,
      "ived": 2213,
      "ses": 2214,
      "tic": 2215,
      "ught": 2216,
      "Ġtem": 2217,
      "Ġworth": 2218,
      "Ġsix": 2219,
      "Ġbat": 2220,
      "ony": 2221,
      "Ġdest": 2222,
      "Ġlot": 2223,
      "Ġlaid": 2224,
      "Ġech": 2225,
      "urd": 2226,
      "Ġstory": 2227,
      "pered": 2228,
      "ĠWest": 2229,
      "Ġkill": 2230,
      "rie": 2231,
      "Ġlect": 2232,
      "Ġdelight": 2233,
      "Ġseems": 2234,
      "Ġspir": 2235,
      "Ġplay": 2236,
      "Ġplans": 2237,
      "Ġtrave": 2238,
      "ĠThr": 2239,
      "--\"": 2240,
      "Ġpos": 2241,
      "ĠOf": 2242,
      "ĠNorth": 2243,
      "Ġslop": 2244,
      "Ġslope": 2245,
      "Ġunknown": 2246,
      "Ġarr": 2247,
      "Ġshape": 2248,
      "Ġthinking": 2249,
      "Ġguards": 2250,
      "acty": 2251,
      "Ġparticular": 2252,
      "anced": 2253,
      "Ġsurface": 2254,
      "Ġespecially": 2255,
      "Ġquickly": 2256,
      "Ġhurry": 2257,
      "odacty": 2258,
      "ground": 2259,
      "Ġnearest": 2260,
      "Ġscram": 2261,
      "ĠAmerica": 2262,
      "Ġforgotten": 2263,
      "Ġdiscovered": 2264,
      "Ġlearned": 2265,
      "Ġgeneral": 2266,
      "Ġlength": 2267,
      "Ġpterodacty": 2268,
      "for": 2269,
      "how": 2270,
      "oot": 2271,
      "raid": 2272,
      "ts": 2273,
      "Ġten": 2274,
      "ines": 2275,
      "Ġwished": 2276,
      "Ġsense": 2277,
      "Ġought": 2278,
      "Ġburn": 2279,
      "Ġfa": 2280,
      "Ġfing": 2281,
      "Ġfool": 2282,
      "Ġlit": 2283,
      "ature": 2284,
      "Ġthrew": 2285,
      "Ġstate": 2286,
      "Ġasleep": 2287,
      "aled": 2288,
      "Ġreco": 2289,
      "ified": 2290,
      "ceed": 2291,
      "Ġsend": 2292,
      "umbling": 2293,
      "Ġsugg": 2294,
      "Ġdel": 2295,
      "Ġdeath": 2296,
      "ĠGlo": 2297,
      "Ġexact": 2298,
      "Ġspite": 2299,
      "Ġbrush": 2300,
      "Ġjumped": 2301,
      "Ġvar": 2302,
      "Ġages": 2303,
      "aps": 2304,
      "aper": 2305,
      "isted": 2306,
      "Ġgrand": 2307,
      "Ġblood": 2308,
      "Ġuncom": 2309,
      "Ġstruck": 2310,
      "Ġshoulder": 2311,
      "ement": 2312,
      "Ġproper": 2313,
      "Ġlights": 2314,
      "Ġworse": 2315,
      "Ġturning": 2316,
      "Ġdoors": 2317,
      "Then": 2318,
      "Ġcourage": 2319,
      "Ġskin": 2320,
      "Ġbecome": 2321,
      "Ġfalling": 2322,
      "Ġlower": 2323,
      "retched": 2324,
      "ĠKing": 2325,
      "Ġhappen": 2326,
      "Ġmiser": 2327,
      "Ġsque": 2328,
      "Ġhungry": 2329,
      "Ġeasy": 2330,
      "Ġdiscus": 2331,
      "Ġservice": 2332,
      "Ġbreath": 2333,
      "Ġstreng": 2334,
      "ĠGoblin": 2335,
      "Ġexpedition": 2336,
      "Ġempty": 2337,
      "Ġcorner": 2338,
      "Ġpretty": 2339,
      "Ġlecture": 2340,
      "Ġsuggest": 2341,
      "ĠGloin": 2342,
      "Ġuncomfort": 2343,
      "Yes": 2344,
      "ipe": 2345,
      "ring": 2346,
      "sha": 2347,
      "use": 2348,
      "Ġtang": 2349,
      "Ġtale": 2350,
      "Ġaff": 2351,
      "Ġahead": 2352,
      "Ġwom": 2353,
      "Ġwest": 2354,
      "Ġwicked": 2355,
      "itions": 2356,
      "llent": 2357,
      "Ġpower": 2358,
      "iding": 2359,
      "Ġears": 2360,
      "Ġweary": 2361,
      "ĠTook": 2362,
      "iced": 2363,
      "uri": 2364,
      "Ġstores": 2365,
      "oose": 2366,
      "ilt": 2367,
      "ades": 2368,
      "Ġnotice": 2369,
      "cept": 2370,
      "Ġshowed": 2371,
      "Ġlie": 2372,
      "ĠGl": 2373,
      "Ġclot": 2374,
      "Ġvi": 2375,
      "Ġvan": 2376,
      "Ġvent": 2377,
      "Ġvol": 2378,
      "Ġplat": 2379,
      "Ġmanaged": 2380,
      "bles": 2381,
      "Ġyourself": 2382,
      "Ġmoved": 2383,
      "Ġunless": 2384,
      "ĠFore": 2385,
      "Ġenem": 2386,
      "Ġshoulders": 2387,
      "Ġswe": 2388,
      "Ġremained": 2389,
      "Ġbody": 2390,
      "Ġexpress": 2391,
      "agged": 2392,
      "Ġfires": 2393,
      "Ġmighty": 2394,
      "Ġperfect": 2395,
      "pected": 2396,
      "Ġwanted": 2397,
      "Ġletter": 2398,
      "ocked": 2399,
      "Ġremembered": 2400,
      "Ġbroad": 2401,
      "Ġterr": 2402,
      "grap": 2403,
      "Ġpockets": 2404,
      "Ġmarked": 2405,
      "Ġexcite": 2406,
      "Ġsteps": 2407,
      "Ġconsiderable": 2408,
      "Ġhanging": 2409,
      "My": 2410,
      "So": 2411,
      "Who": 2412,
      "Where": 2413,
      "aven": 2414,
      "apping": 2415,
      "breed": 2416,
      "pha": 2417,
      "rd": 2418,
      "walin": 2419,
      "Ġty": 2420,
      "Ġtired": 2421,
      "Ġsor": 2422,
      "Ġsouth": 2423,
      "Ġcor": 2424,
      "Ġdared": 2425,
      "Ġdang": 2426,
      "Ġlim": 2427,
      "Ġhide": 2428,
      "Ġhast": 2429,
      "Ġbell": 2430,
      "Ġund": 2431,
      "otion": 2432,
      "Ġweek": 2433,
      "Ġthro": 2434,
      "Ġroof": 2435,
      "Ġstick": 2436,
      "acter": 2437,
      "ĠBof": 2438,
      "Ġforget": 2439,
      "als": 2440,
      "rond": 2441,
      "room": 2442,
      "ague": 2443,
      "ĠAm": 2444,
      "ĠHill": 2445,
      "Ġshook": 2446,
      "ĠWar": 2447,
      "ĠWald": 2448,
      "Ġfeast": 2449,
      "Ġneither": 2450,
      "Ġsus": 2451,
      "Ġlives": 2452,
      "Ġliving": 2453,
      "Ġleather": 2454,
      "Ġleaving": 2455,
      "Ġnose": 2456,
      "Ġdef": 2457,
      "ousand": 2458,
      "Ġbrain": 2459,
      "Ġtrust": 2460,
      "Ġkne": 2461,
      "ĠLond": 2462,
      "Ġpointed": 2463,
      "Ġanyone": 2464,
      "Ġmod": 2465,
      "ĠOut": 2466,
      "ĠOur": 2467,
      "irely": 2468,
      "Ġsmile": 2469,
      "Ġknows": 2470,
      "ĠDon": 2471,
      "Ġwatching": 2472,
      "Ġadmit": 2473,
      "Ġeverything": 2474,
      "Ġwooden": 2475,
      "ancing": 2476,
      "Ġdesce": 2477,
      "Ġcomple": 2478,
      "hole": 2479,
      "Ġvoices": 2480,
      "Ġbroke": 2481,
      "Ġcliffs": 2482,
      "resh": 2483,
      "Ġburst": 2484,
      "Ġhundreds": 2485,
      "Ġquestions": 2486,
      "Ġactually": 2487,
      "Ġexcellent": 2488,
      "Ġhurried": 2489,
      "Ġaware": 2490,
      "Ġhours": 2491,
      "Ġearly": 2492,
      "ĠAmerican": 2493,
      "Ġimagine": 2494,
      "Ġwhispered": 2495,
      "ĠElrond": 2496,
      "Ġcatch": 2497,
      "Ġpinn": 2498,
      "Ġdescrib": 2499,
      "Ġexperience": 2500,
      "This": 2501,
      "Ġafraid": 2502,
      "Ġdisappeared": 2503,
      "Ġwondered": 2504,
      "Ġveget": 2505,
      "Ġcomrades": 2506,
      "Ġentrance": 2507,
      "ĠBofur": 2508,
      "ĠWaldron": 2509,
      "ĠLondon": 2510,
      ".)": 2511,
      "Ex": 2512,
      "aur": 2513,
      "de": 2514,
      "door": 2515,
      "eorge": 2516,
      "mn": 2517,
      "morrow": 2518,
      "uation": 2519,
      "Ġage": 2520,
      "inion": 2521,
      "Ġsang": 2522,
      "Ġopp": 2523,
      "Ġcart": 2524,
      "Ġcell": 2525,
      "eds": 2526,
      "Ġmain": 2527,
      "Ġdawn": 2528,
      "Ġpicked": 2529,
      "Ġpaper": 2530,
      "Ġnice": 2531,
      "Ġeast": 2532,
      "ote": 2533,
      "Ġthird": 2534,
      "Ġthousand": 2535,
      "Ġrate": 2536,
      "Ġrage": 2537,
      "Ġstuff": 2538,
      "eth": 2539,
      "Ġformed": 2540,
      "Ġnote": 2541,
      "Ġsole": 2542,
      "Ġleap": 2543,
      "Ġdoz": 2544,
      "ĠGeorge": 2545,
      "onely": 2546,
      "Ġspot": 2547,
      "Ġspent": 2548,
      "ooking": 2549,
      "ĠLet": 2550,
      "Ġqueer": 2551,
      "Ġwhose": 2552,
      "elves": 2553,
      "Ġflat": 2554,
      "Ġtwenty": 2555,
      "Ġscattered": 2556,
      "Ġprob": 2557,
      "Ġprov": 2558,
      "Ġglade": 2559,
      "Ġcraw": 2560,
      "ledge": 2561,
      "Ġended": 2562,
      "cient": 2563,
      "Ġwrong": 2564,
      "Ġsinging": 2565,
      "Ġpony": 2566,
      "Ġappro": 2567,
      "Ġexpected": 2568,
      "Ġnature": 2569,
      "Ġnatives": 2570,
      "Ġanimals": 2571,
      "Ġbund": 2572,
      "Ġrolled": 2573,
      "Ġsurprise": 2574,
      "Ġcapt": 2575,
      "Ġadded": 2576,
      "Ġeffect": 2577,
      "Ġsubject": 2578,
      "Ġappearance": 2579,
      "Ġinclined": 2580,
      "Ġnumber": 2581,
      "Ġposition": 2582,
      "Ġstrength": 2583,
      "Ġuncomfortable": 2584,
      "Ġclothes": 2585,
      "graph": 2586,
      "Ġexcitement": 2587,
      "Ġpinnacle": 2588,
      "Good": 2589,
      "If": 2590,
      "can": 2591,
      "ead": 2592,
      "mp": 2593,
      "ming": 2594,
      "nce": 2595,
      "tered": 2596,
      "Ġir": 2597,
      "Ġtri": 2598,
      "Ġtrib": 2599,
      "ination": 2600,
      "Ġsum": 2601,
      "Ġsides": 2602,
      "Ġfaint": 2603,
      "Ġcaver": 2604,
      "Ġmus": 2605,
      "Ġdur": 2606,
      "Ġtoes": 2607,
      "Ġlots": 2608,
      "Ġlaughter": 2609,
      "Ġport": 2610,
      "Ġpipe": 2611,
      "Ġgame": 2612,
      "omp": 2613,
      "Ġbeat": 2614,
      "ids": 2615,
      "uts": 2616,
      "Ġelf": 2617,
      "Ġwealth": 2618,
      "Ġrow": 2619,
      "Ġrain": 2620,
      "Ġstiff": 2621,
      "Ġwhist": 2622,
      "ooped": 2623,
      "oolo": 2624,
      "ĠBif": 2625,
      "Ġfort": 2626,
      "Ġancient": 2627,
      "rock": 2628,
      "tern": 2629,
      "ĠShe": 2630,
      "ĠSomet": 2631,
      "Ġsol": 2632,
      "Ġleaped": 2633,
      "Ġspo": 2634,
      "Ġspark": 2635,
      "Ġspread": 2636,
      "Ġvast": 2637,
      "aks": 2638,
      "venking": 2639,
      "ĠThror": 2640,
      "ĠLong": 2641,
      "Ġwhatever": 2642,
      "ĠOin": 2643,
      "Ġconce": 2644,
      "Ġknowledge": 2645,
      "Ġcoat": 2646,
      "ems": 2647,
      "empt": 2648,
      "ĠDwalin": 2649,
      "medi": 2650,
      "Ġglim": 2651,
      "Ġthoughts": 2652,
      "Ġsaying": 2653,
      "osaur": 2654,
      "mend": 2655,
      "Ġhelped": 2656,
      "lso": 2657,
      "airs": 2658,
      "Ġimport": 2659,
      "Ġdistant": 2660,
      "Ġsteam": 2661,
      "Ġchanged": 2662,
      "Ġindic": 2663,
      "Ġresc": 2664,
      "Ġresult": 2665,
      "Ġsett": 2666,
      "Ġchest": 2667,
      "Ġattack": 2668,
      "adys": 2669,
      "Ġkindly": 2670,
      "Ġcompany": 2671,
      "Ġpossess": 2672,
      "Ġnarr": 2673,
      "Ġsituation": 2674,
      "Ġbarrel": 2675,
      "Ġrising": 2676,
      "ĠUp": 2677,
      "Ġinterru": 2678,
      "Ġwandering": 2679,
      "Ġlistened": 2680,
      "Ġbeasts": 2681,
      "Ġcharacter": 2682,
      "ĠElvenking": 2683,
      "Ġmeeting": 2684,
      "Ġvisit": 2685,
      "Ġmerry": 2686,
      "Ġpleasant": 2687,
      "Ġfifty": 2688,
      "Ġpicture": 2689,
      "ĠPerhaps": 2690,
      "Ġamazement": 2691,
      "ĠThrain": 2692,
      "ĠGladys": 2693,
      "Ġviol": 2694,
      "ĠForest": 2695,
      "Ġcomplete": 2696,
      "Ġsolemn": 2697,
      "oolog": 2698,
      "ĠBifur": 2699,
      "Ard": 2700,
      "How": 2701,
      "Let": 2702,
      "book": 2703,
      "cArd": 2704,
      "du": 2705,
      "form": 2706,
      "gar": 2707,
      "ia": 2708,
      "iar": 2709,
      "my": 2710,
      "og": 2711,
      "town": 2712,
      "uan": 2713,
      "udd": 2714,
      "val": 2715,
      "vol": 2716,
      "zz": 2717,
      "Ġaud": 2718,
      "inting": 2719,
      "Ġsle": 2720,
      "Ġsimp": 2721,
      "Ġfut": 2722,
      "Ġflew": 2723,
      "Ġfresh": 2724,
      "eding": 2725,
      "itive": 2726,
      "Ġmine": 2727,
      "Ġmars": 2728,
      "lled": 2729,
      "Ġdin": 2730,
      "orous": 2731,
      "Ġlater": 2732,
      "Ġph": 2733,
      "Ġpit": 2734,
      "Ġpen": 2735,
      "Ġpri": 2736,
      "Ġpant": 2737,
      "ane": 2738,
      "idges": 2739,
      "Ġweap": 2740,
      "ĠTw": 2741,
      "Ġstro": 2742,
      "Ġstop": 2743,
      "ety": 2744,
      "Ġhissed": 2745,
      "Ġasce": 2746,
      "ooping": 2747,
      "ĠAr": 2748,
      "chief": 2749,
      "umn": 2750,
      "ument": 2751,
      "ĠWood": 2752,
      "ĠMcArd": 2753,
      "Ġexha": 2754,
      "Ġextr": 2755,
      "oney": 2756,
      "urely": 2757,
      "Ġclam": 2758,
      "Ġcloud": 2759,
      "Ġholl": 2760,
      "Ġropes": 2761,
      "Ġtrying": 2762,
      "ept": 2763,
      "Ġthrust": 2764,
      "Ġstrugg": 2765,
      "ĠEs": 2766,
      "Ġarrow": 2767,
      "Ġprop": 2768,
      "Ġproceed": 2769,
      "Ġwaters": 2770,
      "though": 2771,
      "Ġimmedi": 2772,
      "Ġboy": 2773,
      "Ġpassages": 2774,
      "Ġspec": 2775,
      "Ġchild": 2776,
      "ĠMountains": 2777,
      "aws": 2778,
      "Ġchange": 2779,
      "Ġobject": 2780,
      "ĠOnly": 2781,
      "Ġentirely": 2782,
      "Ġclimbing": 2783,
      "strous": 2784,
      "Ġwalk": 2785,
      "Ġwalking": 2786,
      "Ġmonstrous": 2787,
      "Ġjob": 2788,
      "Ġcarefully": 2789,
      "Ġnatur": 2790,
      "Ġoccur": 2791,
      "Ġquietly": 2792,
      "while": 2793,
      "Ġteeth": 2794,
      "Ġfrightened": 2795,
      "Ġpersonal": 2796,
      "together": 2797,
      "Ġminutes": 2798,
      "Ġhills": 2799,
      "Ġcenter": 2800,
      "Ġpleased": 2801,
      "Ġsmooth": 2802,
      "Ġlaughing": 2803,
      "Ġtrunk": 2804,
      "Ġtouch": 2805,
      "Ġhigher": 2806,
      "bye": 2807,
      "Ġvarious": 2808,
      "Ġvanished": 2809,
      "ĠWargs": 2810,
      "Ġsimply": 2811,
      "ĠMcArdle": 2812,
      "cr": 2813,
      "cent": 2814,
      "ech": 2815,
      "gain": 2816,
      "gress": 2817,
      "lish": 2818,
      "ograph": 2819,
      "ral": 2820,
      "uit": 2821,
      "vish": 2822,
      "ĠVery": 2823,
      "Ġtin": 2824,
      "Ġtong": 2825,
      "hest": 2826,
      "Ġwis": 2827,
      "Ġsick": 2828,
      "reen": 2829,
      "Ġbone": 2830,
      "Ġbull": 2831,
      "ero": 2832,
      "Ġfav": 2833,
      "Ġmile": 2834,
      "Ġmutt": 2835,
      "Ġmention": 2836,
      "arre": 2837,
      "lect": 2838,
      "Ġwaste": 2839,
      "Ġwet": 2840,
      "Ġwear": 2841,
      "Ġweight": 2842,
      "Ġyer": 2843,
      "Ġrap": 2844,
      "step": 2845,
      "vers": 2846,
      "Ġstar": 2847,
      "Ġstir": 2848,
      "Ġsav": 2849,
      "aded": 2850,
      "Ġnoticed": 2851,
      "ags": 2852,
      "ĠAlso": 2853,
      "Ġshr": 2854,
      "Ġshone": 2855,
      "ushing": 2856,
      "Ġjew": 2857,
      "ĠLand": 2858,
      "Ġcanoes": 2859,
      "Ġgreater": 2860,
      "Ġdrawn": 2861,
      "Ġunex": 2862,
      "Ġtwice": 2863,
      "Ġthank": 2864,
      "ddy": 2865,
      "Ġcovered": 2866,
      "Ġswept": 2867,
      "Ġcrow": 2868,
      "Ġremain": 2869,
      "Ġopinion": 2870,
      "Ġshallow": 2871,
      "Ġwaving": 2872,
      "Ġrocky": 2873,
      "azon": 2874,
      "Ġdesire": 2875,
      "Ġdesper": 2876,
      "Ġhorse": 2877,
      "Ġsketch": 2878,
      "Ġbusy": 2879,
      "Ġsmaller": 2880,
      "ails": 2881,
      "Ġrespect": 2882,
      "Ġclearing": 2883,
      "Ġwarm": 2884,
      "Ġwaited": 2885,
      "Ġbitter": 2886,
      "Ġhalls": 2887,
      "idden": 2888,
      "ĠOnce": 2889,
      "resent": 2890,
      "Ġreport": 2891,
      "Ġtorch": 2892,
      "Ġpresence": 2893,
      "Ġjoy": 2894,
      "Ġsigns": 2895,
      "Ġrabbit": 2896,
      "Ġcompanion": 2897,
      "Ġbanks": 2898,
      "Ġeagles": 2899,
      "Ġrifles": 2900,
      "Ġrisk": 2901,
      "Ġdreams": 2902,
      "Ġeasily": 2903,
      "Ġleading": 2904,
      "place": 2905,
      "Ġcrossed": 2906,
      "Ġsurprised": 2907,
      "Ġmemory": 2908,
      "abbed": 2909,
      "Ġpubl": 2910,
      "Ġmerely": 2911,
      "Ġpulled": 2912,
      "Ġabsolutely": 2913,
      "Ġbrushwood": 2914,
      "Ġmiserable": 2915,
      "Ġperfectly": 2916,
      "ĠAmazon": 2917,
      "Ġduring": 2918,
      "Ġinterrupt": 2919,
      "uanod": 2920,
      "Ġfuture": 2921,
      "Ġextra": 2922,
      "Ġspecim": 2923,
      "In": 2924,
      "app": 2925,
      "boo": 2926,
      "cil": 2927,
      "col": 2928,
      "ear": 2929,
      "father": 2930,
      "jo": 2931,
      "oon": 2932,
      "sit": 2933,
      "you": 2934,
      "Ġz": 2935,
      "Ġig": 2936,
      "Ġast": 2937,
      "Ġwise": 2938,
      "Ġwits": 2939,
      "nds": 2940,
      "Ġbas": 2941,
      "Ġbent": 2942,
      "Ġbam": 2943,
      "Ġfree": 2944,
      "Ġfash": 2945,
      "Ġcries": 2946,
      "Ġmass": 2947,
      "inging": 2948,
      "llum": 2949,
      "iss": 2950,
      "ises": 2951,
      "ork": 2952,
      "ories": 2953,
      "Ġhaven": 2954,
      "Ġpine": 2955,
      "Ġgather": 2956,
      "Ġhesit": 2957,
      "ution": 2958,
      "Ġthir": 2959,
      "Ġri": 2960,
      "Ġrich": 2961,
      "ils": 2962,
      "Ġanx": 2963,
      "ify": 2964,
      "ifted": 2965,
      "Ġseized": 2966,
      "Ġmeat": 2967,
      "umb": 2968,
      "ĠWhere": 2969,
      "ĠWhy": 2970,
      "acket": 2971,
      "Ġgollum": 2972,
      "Ġsuper": 2973,
      "Ġaltogether": 2974,
      "Ġusual": 2975,
      "cked": 2976,
      "Ġsomewhere": 2977,
      "Ġclo": 2978,
      "Ġvill": 2979,
      "Ġvict": 2980,
      "arted": 2981,
      "----\"": 2982,
      "ĠCome": 2983,
      "Ġpointing": 2984,
      "elve": 2985,
      "Ġflames": 2986,
      "ĠNature": 2987,
      "Ġblind": 2988,
      "Ġblank": 2989,
      "Ġconv": 2990,
      "bbing": 2991,
      "Ġtwink": 2992,
      "Ġthrush": 2993,
      "ĠEvery": 2994,
      "Ġaround": 2995,
      "Ġarri": 2996,
      "ĠDr": 2997,
      "Ġafterwards": 2998,
      "Ġwatched": 2999,
      "Ġglass": 3000,
      "Ġlightning": 3001,
      "Ġworst": 3002,
      "Ġpract": 3003,
      "Ġpecul": 3004,
      "ĠIndeed": 3005,
      "Ġimpress": 3006,
      "hold": 3007,
      "Ġstepped": 3008,
      "Ġsounded": 3009,
      "Ġexplan": 3010,
      "Ġattempt": 3011,
      "Ġplease": 3012,
      "Ġevidence": 3013,
      "Ġpossib": 3014,
      "Ġcreep": 3015,
      "Ġboats": 3016,
      "ixed": 3017,
      "Ġcommon": 3018,
      "Ġimagined": 3019,
      "Ġgates": 3020,
      "Ġcomfortable": 3021,
      "Ġpurs": 3022,
      "chant": 3023,
      "Ġconditions": 3024,
      "Ġsearch": 3025,
      "ĠEnglish": 3026,
      "Ġecho": 3027,
      "Ġgrandfather": 3028,
      "Ġplatform": 3029,
      "Ġcartr": 3030,
      "mendous": 3031,
      "Ġnarrative": 3032,
      "Ġoccurred": 3033,
      "Ġunexpected": 3034,
      "Ġiguanod": 3035,
      "Ġbamboo": 3036,
      "Ġfashion": 3037,
      "Ġpeculiar": 3038,
      "To": 3039,
      "cy": 3040,
      "dge": 3041,
      "eks": 3042,
      "fl": 3043,
      "kes": 3044,
      "min": 3045,
      "sc": 3046,
      "uage": 3047,
      "ĠQu": 3048,
      "Ġtight": 3049,
      "Ġav": 3050,
      "inct": 3051,
      "Ġwin": 3052,
      "Ġwake": 3053,
      "Ġsack": 3054,
      "Ġsank": 3055,
      "Ġsens": 3056,
      "Ġbree": 3057,
      "Ġbones": 3058,
      "Ġfart": 3059,
      "Ġfail": 3060,
      "Ġdied": 3061,
      "oring": 3062,
      "arrock": 3063,
      "Ġpain": 3064,
      "Ġpick": 3065,
      "Ġpuff": 3066,
      "Ġheaven": 3067,
      "aning": 3068,
      "utumn": 3069,
      "Ġequ": 3070,
      "Ġemer": 3071,
      "otograph": 3072,
      "icious": 3073,
      "Ġthunder": 3074,
      "stone": 3075,
      "urb": 3076,
      "Ġstumbled": 3077,
      "Ġstony": 3078,
      "acing": 3079,
      "ays": 3080,
      "Ġsaf": 3081,
      "Ġsand": 3082,
      "amed": 3083,
      "Ġupwards": 3084,
      "Ġfring": 3085,
      "Ġself": 3086,
      "agger": 3087,
      "ĠAn": 3088,
      "Ġshoot": 3089,
      "ums": 3090,
      "ĠWho": 3091,
      "Ġsoft": 3092,
      "Ġgoes": 3093,
      "Ġext": 3094,
      "Ġexam": 3095,
      "Ġjud": 3096,
      "Ġroast": 3097,
      "ĠCarrock": 3098,
      "Ġgrowing": 3099,
      "Ġyours": 3100,
      "Ġtremendous": 3101,
      "ĠOld": 3102,
      "Ġflo": 3103,
      "Ġflung": 3104,
      "Ġflowed": 3105,
      "Ġflowers": 3106,
      "inking": 3107,
      "ĠEag": 3108,
      "Ġarmed": 3109,
      "Ġdidn": 3110,
      "Ġenc": 3111,
      "Ġeng": 3112,
      "Ġenchant": 3113,
      "Ġscar": 3114,
      "Ġhanded": 3115,
      "Ġpress": 3116,
      "Ġprof": 3117,
      "Ġcrash": 3118,
      "Ġbegun": 3119,
      "Ġguide": 3120,
      "osing": 3121,
      "ĠRe": 3122,
      "anguage": 3123,
      "ection": 3124,
      "aze": 3125,
      "Ġwoke": 3126,
      "Ġcalling": 3127,
      "Ġdisturb": 3128,
      "Ġpaths": 3129,
      "Ġsurv": 3130,
      "Ġwarri": 3131,
      "Ġfollowing": 3132,
      "kenstone": 3133,
      "fortun": 3134,
      "Ġtorn": 3135,
      "Ġeaten": 3136,
      "Ġrealize": 3137,
      "Ġrealized": 3138,
      "Ġbuilt": 3139,
      "Ġabsurd": 3140,
      "Ġexcited": 3141,
      "Ġorder": 3142,
      "Ġwhisper": 3143,
      "Ġminute": 3144,
      "impse": 3145,
      "Ġdrawing": 3146,
      "Ġargument": 3147,
      "Ġcoun": 3148,
      "Ġmessage": 3149,
      "Ġguns": 3150,
      "Ġprepared": 3151,
      "Ġarrows": 3152,
      "Ġscrambled": 3153,
      "Ġpterodactyl": 3154,
      "Ġvolcan": 3155,
      "Ġenemies": 3156,
      "Ġsorry": 3157,
      "Ġvegetation": 3158,
      "Ġsummit": 3159,
      "Ġimportant": 3160,
      "Ġaudience": 3161,
      "Ġphotograph": 3162,
      "Ġpriv": 3163,
      "Ġweapons": 3164,
      "ĠArkenstone": 3165,
      "Ġcrowd": 3166,
      "Ġextraord": 3167,
      "af": 3168,
      "aff": 3169,
      "cing": 3170,
      "ker": 3171,
      "par": 3172,
      "set": 3173,
      "ues": 3174,
      "xes": 3175,
      "Ġign": 3176,
      "Ġtas": 3177,
      "Ġtub": 3178,
      "inite": 3179,
      "Ġwound": 3180,
      "Ġwine": 3181,
      "Ġsim": 3182,
      "rent": 3183,
      "happ": 3184,
      "Ġbough": 3185,
      "Ġbowed": 3186,
      "Ġblew": 3187,
      "erve": 3188,
      "Ġfate": 3189,
      "Ġfanc": 3190,
      "Ġfunn": 3191,
      "Ġcast": 3192,
      "itable": 3193,
      "ities": 3194,
      "Ġmakes": 3195,
      "onstr": 3196,
      "Ġdancing": 3197,
      "isf": 3198,
      "ising": 3199,
      "Ġtow": 3200,
      "Ġlu": 3201,
      "Ġlose": 3202,
      "Ġloose": 3203,
      "Ġlanguage": 3204,
      "Ġhidden": 3205,
      "Ġhab": 3206,
      "Ġhaul": 3207,
      "Ġnames": 3208,
      "Ġbeards": 3209,
      "Ġeaster": 3210,
      "Ġweak": 3211,
      "velo": 3212,
      "Ġthreat": 3213,
      "Ġonwards": 3214,
      "stant": 3215,
      "etr": 3216,
      "ĠBr": 3217,
      "add": 3218,
      "ading": 3219,
      "Ġrece": 3220,
      "Ġrepe": 3221,
      "Ġanno": 3222,
      "Ġsending": 3223,
      "hern": 3224,
      "ĠAny": 3225,
      "ĠSuch": 3226,
      "ĠHad": 3227,
      "Ġbutter": 3228,
      "ript": 3229,
      "Ġliar": 3230,
      "ĠMist": 3231,
      "Ġaloud": 3232,
      "ĠGood": 3233,
      "usion": 3234,
      "Ġsport": 3235,
      "Ġspace": 3236,
      "Ġspare": 3237,
      "Ġbrook": 3238,
      "Ġjung": 3239,
      "Ġvain": 3240,
      "Ġplenty": 3241,
      "akens": 3242,
      "antic": 3243,
      "Ġmanner": 3244,
      "ĠCl": 3245,
      "Ġanywhere": 3246,
      "Ġgrumbling": 3247,
      "itted": 3248,
      "itten": 3249,
      "elt": 3250,
      "ĠOther": 3251,
      "Ġunable": 3252,
      "Ġtwelve": 3253,
      "Ġways": 3254,
      "Ġarch": 3255,
      "Ġenvelo": 3256,
      "Ġprofessor": 3257,
      "Ġswamp": 3258,
      "Ġglimpse": 3259,
      "Ġunderground": 3260,
      "oped": 3261,
      "Ġremains": 3262,
      "Ġdisapp": 3263,
      "Ġpeep": 3264,
      "Ġbelong": 3265,
      "ĠRunning": 3266,
      "Ġspears": 3267,
      "agging": 3268,
      "Ġchuck": 3269,
      "Ġfinding": 3270,
      "Ġclever": 3271,
      "Ġhorror": 3272,
      "cip": 3273,
      "Ġtales": 3274,
      "Ġtalked": 3275,
      "Ġcurious": 3276,
      "Ġlarger": 3277,
      "Ġwrite": 3278,
      "Ġclearly": 3279,
      "Ġdirections": 3280,
      "Ġpoints": 3281,
      "Ġrepl": 3282,
      "Ġterror": 3283,
      "Ġuseful": 3284,
      "Ġkeeping": 3285,
      "Ġmonster": 3286,
      "Ġexceeding": 3287,
      "Ġgiant": 3288,
      "Ġraft": 3289,
      "Ġevil": 3290,
      "Ġmeanwhile": 3291,
      "Ġmarch": 3292,
      "Ġfairly": 3293,
      "Ġruddy": 3294,
      "ĠYour": 3295,
      "Ġrolling": 3296,
      "Ġreflect": 3297,
      "Ġhunting": 3298,
      "Ġordinary": 3299,
      "Ġremarkable": 3300,
      "Ġinterested": 3301,
      "Ġcarrying": 3302,
      "noon": 3303,
      "Ġeffort": 3304,
      "Ġexperien": 3305,
      "Ġfifteen": 3306,
      "Ġcontinued": 3307,
      "Ġtrunks": 3308,
      "Ġgazing": 3309,
      "Ġhonor": 3310,
      "Ġswiftly": 3311,
      "Ġtemper": 3312,
      "Ġdestro": 3313,
      "Ġplayed": 3314,
      "Ġtangled": 3315,
      "Ġventure": 3316,
      "phant": 3317,
      "Ġtype": 3318,
      "Ġsusp": 3319,
      "Ġknees": 3320,
      "Ġmodern": 3321,
      "Ġdozen": 3322,
      "Ġprobably": 3323,
      "Ġsettled": 3324,
      "Ġexhausted": 3325,
      "Ġhollow": 3326,
      "Ġimmediately": 3327,
      "Ġshrill": 3328,
      "Ġjewels": 3329,
      "colored": 3330,
      "ĠDragon": 3331,
      "Ġexplanation": 3332,
      "Ġfarther": 3333,
      "ĠEagles": 3334,
      "Ġvolcanic": 3335,
      "Ġextraordinary": 3336,
      "ĠMisty": 3337,
      "Ġenvelope": 3338,
      "'d": 3339,
      ".'": 3340,
      "Here": 3341,
      "Is": 3342,
      "ait": 3343,
      "aused": 3344,
      "bs": 3345,
      "bers": 3346,
      "bank": 3347,
      "cer": 3348,
      "come": 3349,
      "fire": 3350,
      "gin": 3351,
      "gun": 3352,
      "hip": 3353,
      "hield": 3354,
      "ky": 3355,
      "mber": 3356,
      "ric": 3357,
      "sm": 3358,
      "some": 3359,
      "tons": 3360,
      "und": 3361,
      "uly": 3362,
      "uous": 3363,
      "ĠV": 3364,
      "Ġill": 3365,
      "Ġwing": 3366,
      "Ġsou": 3367,
      "reme": 3368,
      "oun": 3369,
      "Ġbay": 3370,
      "erm": 3371,
      "Ġcas": 3372,
      "Ġcro": 3373,
      "Ġcunning": 3374,
      "Ġmood": 3375,
      "Ġmotion": 3376,
      "Ġdun": 3377,
      "Ġdie": 3378,
      "Ġdign": 3379,
      "Ġlur": 3380,
      "Ġlair": 3381,
      "Ġlab": 3382,
      "asm": 3383,
      "asy": 3384,
      "ashing": 3385,
      "Ġhot": 3386,
      "Ġpool": 3387,
      "Ġgri": 3388,
      "Ġgems": 3389,
      "Ġbears": 3390,
      "ley": 3391,
      "Ġut": 3392,
      "Ġthread": 3393,
      "Ġride": 3394,
      "ĠâĢĻ": 3395,
      "Ġhist": 3396,
      "oop": 3397,
      "Ġford": 3398,
      "Ġreeds": 3399,
      "omez": 3400,
      "Ġallow": 3401,
      "Ġshock": 3402,
      "Ġshores": 3403,
      "umble": 3404,
      "une": 3405,
      "Ġcouldn": 3406,
      "Ġsucc": 3407,
      "Ġlies": 3408,
      "ĠMan": 3409,
      "Ġdem": 3410,
      "Ġdeer": 3411,
      "Ġusually": 3412,
      "ĠGomez": 3413,
      "Ġintell": 3414,
      "Ġbrown": 3415,
      "Ġclass": 3416,
      "Ġvague": 3417,
      "Ġhost": 3418,
      "Ġhoard": 3419,
      "Ġholes": 3420,
      "Ġagreed": 3421,
      "Ġbacks": 3422,
      "ists": 3423,
      "Ġgrou": 3424,
      "Ġgras": 3425,
      "ĠOr": 3426,
      "ĠOakens": 3427,
      "ĠNori": 3428,
      "arent": 3429,
      "Ġunc": 3430,
      "Ġunhapp": 3431,
      "Ġtwisted": 3432,
      "Ġscream": 3433,
      "Ġafternoon": 3434,
      "Ġshaking": 3435,
      "Ġswung": 3436,
      "Ġcrown": 3437,
      "Ġprim": 3438,
      "ivering": 3439,
      "Ġbelt": 3440,
      "Ġpassing": 3441,
      "Ġspeaking": 3442,
      "amped": 3443,
      "Ġcho": 3444,
      "Ġdesp": 3445,
      "Ġadvice": 3446,
      "Ġcurrent": 3447,
      "Ġwondering": 3448,
      "Ġobv": 3449,
      "Ġsingular": 3450,
      "Ġsetting": 3451,
      "Ġshel": 3452,
      "Ġrepresent": 3453,
      "Ġhearts": 3454,
      "Ġstarting": 3455,
      "Ġreturning": 3456,
      "Ġtunnels": 3457,
      "Ġhurt": 3458,
      "Ġraven": 3459,
      "Ġraised": 3460,
      "Ġyear": 3461,
      "Ġlouder": 3462,
      "Ġlucky": 3463,
      "Ġhunt": 3464,
      "Ġfrightful": 3465,
      "Ġwandered": 3466,
      "Ġlistening": 3467,
      "Ġforgot": 3468,
      "Ġcolor": 3469,
      "Ġcentral": 3470,
      "Ġincident": 3471,
      "Ġdriven": 3472,
      "Ġcollect": 3473,
      "Ġoccasional": 3474,
      "Ġpalm": 3475,
      "Ġobserved": 3476,
      "Ġcouple": 3477,
      "Ġpuzz": 3478,
      "Ġgazed": 3479,
      "ĠAlready": 3480,
      "Ġpolite": 3481,
      "Ġpieces": 3482,
      "Ġpromise": 3483,
      "Ġslopes": 3484,
      "Ġhurrying": 3485,
      "Ġburning": 3486,
      "Ġfoolish": 3487,
      "Ġexactly": 3488,
      "Ġlecturer": 3489,
      "Ġsuggested": 3490,
      "Ġthroat": 3491,
      "Ġcrawling": 3492,
      "Ġcaverns": 3493,
      "Ġmusic": 3494,
      "Ġspoken": 3495,
      "ĠTwo": 3496,
      "Ġtiny": 3497,
      "Ġfavor": 3498,
      "Ġrapid": 3499,
      "Ġcartridges": 3500,
      "Ġsafety": 3501,
      "Ġboughs": 3502,
      "Ġeastern": 3503,
      "Ġjungle": 3504,
      "Ġprofessors": 3505,
      "ĠOakenshield": 3506,
      ",--": 3507,
      "All": 3508,
      "By": 3509,
      "HE": 3510,
      "Our": 3511,
      "Your": 3512,
      "aun": 3513,
      "ez": 3514,
      "fall": 3515,
      "line": 3516,
      "mark": 3517,
      "old": 3518,
      "time": 3519,
      "uing": 3520,
      "view": 3521,
      "Ġtied": 3522,
      "Ġautumn": 3523,
      "Ġwretched": 3524,
      "Ġsy": 3525,
      "Ġbore": 3526,
      "Ġbare": 3527,
      "Ġbother": 3528,
      "Ġbase": 3529,
      "Ġfill": 3530,
      "Ġcal": 3531,
      "Ġcook": 3532,
      "itude": 3533,
      "lling": 3534,
      "ism": 3535,
      "ishing": 3536,
      "isions": 3537,
      "oration": 3538,
      "asant": 3539,
      "ara": 3540,
      "Ġhiding": 3541,
      "Ġpay": 3542,
      "Ġpill": 3543,
      "ĠIs": 3544,
      "ates": 3545,
      "atic": 3546,
      "omed": 3547,
      "Ġbew": 3548,
      "Ġeight": 3549,
      "vere": 3550,
      "Ġrude": 3551,
      "urope": 3552,
      "Ġstri": 3553,
      "Ġstretched": 3554,
      "irth": 3555,
      "sel": 3556,
      "sect": 3557,
      "ools": 3558,
      "ented": 3559,
      "Ġsaved": 3560,
      "ales": 3561,
      "Ġrept": 3562,
      "Ġisn": 3563,
      "Ġseat": 3564,
      "Ġsepar": 3565,
      "pend": 3566,
      "aste": 3567,
      "Ġneg": 3568,
      "Ġneigh": 3569,
      "Ġsuff": 3570,
      "Ġlevel": 3571,
      "Ġnodd": 3572,
      "Ġalar": 3573,
      "Ġalthough": 3574,
      "ushes": 3575,
      "Ġdownwards": 3576,
      "Ġbrutes": 3577,
      "Ġsomewhat": 3578,
      "Ġjump": 3579,
      "Ġjacket": 3580,
      "Ġval": 3581,
      "Ġhoped": 3582,
      "Ġplung": 3583,
      "Ġplaced": 3584,
      "Ġrode": 3585,
      "Ġtrans": 3586,
      "Ġtrotted": 3587,
      "aud": 3588,
      "Ġknives": 3589,
      "ĠLuck": 3590,
      "ĠCur": 3591,
      "ĠComp": 3592,
      "Ġpost": 3593,
      "Ġanyway": 3594,
      "Ġgrabbed": 3595,
      "Ġtrem": 3596,
      "Ġdragged": 3597,
      "ĠOri": 3598,
      "olog": 3599,
      "Ġblocked": 3600,
      "ĠPoor": 3601,
      "Ġconstant": 3602,
      "Ġunple": 3603,
      "Ġunfortun": 3604,
      "Ġthrown": 3605,
      "Ġsmiling": 3606,
      "ddled": 3607,
      "ĠEurope": 3608,
      "Ġoffer": 3609,
      "Ġprec": 3610,
      "Ġprev": 3611,
      "ĠDo": 3612,
      "ĠDown": 3613,
      "Ġpros": 3614,
      "Ġproble": 3615,
      "Ġproved": 3616,
      "Ġproject": 3617,
      "Ġprogress": 3618,
      "Ġwherever": 3619,
      "Ġhowling": 3620,
      "Ġbod": 3621,
      "ĠInst": 3622,
      "Ġpeace": 3623,
      "actly": 3624,
      "Ġhuddled": 3625,
      "Ġchap": 3626,
      "Ġeverybody": 3627,
      "Ġwaved": 3628,
      "Ġhorses": 3629,
      "Ġadvance": 3630,
      "Ġadvanced": 3631,
      "Ġimpat": 3632,
      "Ġdeeper": 3633,
      "Ġrunes": 3634,
      "Ġsnow": 3635,
      "Ġsnort": 3636,
      "Ġcheck": 3637,
      "Ġhappy": 3638,
      "Ġmissed": 3639,
      "Ġsorts": 3640,
      "Ġexplained": 3641,
      "Ġexplored": 3642,
      "Ġbigger": 3643,
      "struct": 3644,
      "Ġactive": 3645,
      "Ġjoined": 3646,
      "Ġcareful": 3647,
      "Ġswords": 3648,
      "Ġeagle": 3649,
      "Ġunderstood": 3650,
      "Ġmarve": 3651,
      "ĠFront": 3652,
      "Ġdifficulty": 3653,
      "ĠNothing": 3654,
      "ĠYet": 3655,
      "Ġinstead": 3656,
      "Ġdoesn": 3657,
      "Ġeyebr": 3658,
      "ĠUnder": 3659,
      "Ġleader": 3660,
      "Ġlisten": 3661,
      "Ġfoli": 3662,
      "ields": 3663,
      "Ġpatches": 3664,
      "Ġdeterm": 3665,
      "Ġdevil": 3666,
      "Ġelephant": 3667,
      "Ġfamous": 3668,
      "Ġregard": 3669,
      "Ġgroaned": 3670,
      "shine": 3671,
      "Ġeagerly": 3672,
      "Ġspirit": 3673,
      "Ġparticularly": 3674,
      "Ġfingers": 3675,
      "Ġwomen": 3676,
      "Ġwoman": 3677,
      "Ġdefinite": 3678,
      "Ġdescribed": 3679,
      "Exactly": 3680,
      "Ġprovisions": 3681,
      "Ġcaptain": 3682,
      "oological": 3683,
      "garoth": 3684,
      "Ġslept": 3685,
      "Ġascended": 3686,
      "Ġstruggle": 3687,
      "ĠEsgaroth": 3688,
      "Ġnatural": 3689,
      "Ġdesperate": 3690,
      "Ġpublic": 3691,
      "Ġspecimen": 3692,
      "Ġaston": 3693,
      "Ġbasal": 3694,
      "Ġthirteen": 3695,
      "Ġlux": 3696,
      "Ġreceived": 3697,
      "Ġannoyed": 3698,
      "Ġexperiences": 3699,
      "Ġdestroyed": 3700,
      "Ġdunge": 3701,
      "Ġdignity": 3702,
      "Ġsuccess": 3703,
      "Ġunhappy": 3704,
      "Ġneighb": 3705,
      "Ġunpleasant": 3706,
      "Ġeyebrows": 3707,
      "Do": 3708,
      "Did": 3709,
      "Go": 3710,
      "Of": 3711,
      "Oh": 3712,
      "ables": 3713,
      "cest": 3714,
      "cop": 3715,
      "dom": 3716,
      "ee": 3717,
      "ggs": 3718,
      "green": 3719,
      "hin": 3720,
      "hist": 3721,
      "iance": 3722,
      "iving": 3723,
      "ixt": 3724,
      "mis": 3725,
      "na": 3726,
      "nel": 3727,
      "oe": 3728,
      "oid": 3729,
      "off": 3730,
      "rat": 3731,
      "round": 3732,
      "rish": 3733,
      "rud": 3734,
      "wise": 3735,
      "Ġ1": 3736,
      "Ġtaste": 3737,
      "Ġaid": 3738,
      "Ġwes": 3739,
      "Ġwore": 3740,
      "Ġske": 3741,
      "Ġsummer": 3742,
      "reci": 3743,
      "ndid": 3744,
      "ham": 3745,
      "Ġbould": 3746,
      "Ġball": 3747,
      "Ġbook": 3748,
      "Ġbump": 3749,
      "erg": 3750,
      "Ġfir": 3751,
      "Ġfare": 3752,
      "Ġfero": 3753,
      "Ġcause": 3754,
      "Ġcaut": 3755,
      "Ġcup": 3756,
      "Ġmur": 3757,
      "oned": 3758,
      "onight": 3759,
      "Ġdwell": 3760,
      "isible": 3761,
      "Ġlat": 3762,
      "Ġlord": 3763,
      "Ġlamp": 3764,
      "Ġlimb": 3765,
      "Ġlonely": 3766,
      "Ġlifted": 3767,
      "asons": 3768,
      "arp": 3769,
      "âĢĺ": 3770,
      "Ġhailed": 3771,
      "Ġinsect": 3772,
      "Ġpiled": 3773,
      "Ġpicking": 3774,
      "Ġgall": 3775,
      "Ġgard": 3776,
      "Ġhero": 3777,
      "Ġheels": 3778,
      "Ġhedge": 3779,
      "hattered": 3780,
      "omach": 3781,
      "Ġbee": 3782,
      "Ġbells": 3783,
      "legs": 3784,
      "Ġere": 3785,
      "ldom": 3786,
      "ĠTHE": 3787,
      "Ġyel": 3788,
      "Ġthorn": 3789,
      "Ġrust": 3790,
      "Ġrings": 3791,
      "Ġrush": 3792,
      "Ġriddle": 3793,
      "sters": 3794,
      "urin": 3795,
      "ĠâĢĿ": 3796,
      "Ġstairs": 3797,
      "Ġstomach": 3798,
      "acon": 3799,
      "acious": 3800,
      "irion": 3801,
      "Ġascent": 3802,
      "sem": 3803,
      "Ġforty": 3804,
      "ental": 3805,
      "Ġsad": 3806,
      "adily": 3807,
      "Ġreve": 3808,
      "key": 3809,
      "Ġate": 3810,
      "aming": 3811,
      "rob": 3812,
      "rop": 3813,
      "omely": 3814,
      "Ġseven": 3815,
      "Ġseated": 3816,
      "Ġseldom": 3817,
      "ĠSir": 3818,
      "Ġbutler": 3819,
      "umps": 3820,
      "unately": 3821,
      "Ġfears": 3822,
      "Ġfeather": 3823,
      "Ġnecess": 3824,
      "rily": 3825,
      "Ġleg": 3826,
      "Ġlege": 3827,
      "Ġleaned": 3828,
      "ĠMen": 3829,
      "ĠMay": 3830,
      "Ġdecl": 3831,
      "oused": 3832,
      "que": 3833,
      "Ġwouldn": 3834,
      "Ġsple": 3835,
      "Ġbru": 3836,
      "Ġbrist": 3837,
      "Ġbrute": 3838,
      "Ġsomehow": 3839,
      "Ġjer": 3840,
      "Ġclay": 3841,
      "Ġclos": 3842,
      "ours": 3843,
      "Ġtrap": 3844,
      "Ġtrick": 3845,
      "Ġknock": 3846,
      "ĠThough": 3847,
      "erson": 3848,
      "ĠLast": 3849,
      "ĠLonely": 3850,
      "ĠCh": 3851,
      "Ġwilling": 3852,
      "Ġpop": 3853,
      "Ġpoison": 3854,
      "Ġcanes": 3855,
      "Ġbackwards": 3856,
      "Ġgray": 3857,
      "Ġgrumbled": 3858,
      "Ġoverhan": 3859,
      "Ġfled": 3860,
      "Ġflash": 3861,
      "Ġlooks": 3862,
      "Ġbless": 3863,
      "Ġunp": 3864,
      "Ġunw": 3865,
      "Ġstraw": 3866,
      "Ġotherwise": 3867,
      "Ġenerg": 3868,
      "Ġscutt": 3869,
      "Ġprete": 3870,
      "Ġprecip": 3871,
      "Ġprofess": 3872,
      "Ġswir": 3873,
      "Ġswooped": 3874,
      "Ġglow": 3875,
      "Ġglance": 3876,
      "Ġacqu": 3877,
      "Ġimmen": 3878,
      "izz": 3879,
      "Ġbold": 3880,
      "Ġpra": 3881,
      "Ġpride": 3882,
      "Ġproud": 3883,
      "osp": 3884,
      "osen": 3885,
      "Ġspeed": 3886,
      "Ġspecially": 3887,
      "Ġharps": 3888,
      "Ġchosen": 3889,
      "Ġwaist": 3890,
      "ances": 3891,
      "Ġwolf": 3892,
      "Ġskins": 3893,
      "Ġputting": 3894,
      "Ġdeeply": 3895,
      "hod": 3896,
      "Ġsteadily": 3897,
      "ressed": 3898,
      "Ġcurved": 3899,
      "Ġsunshine": 3900,
      "Ġwrapped": 3901,
      "iddles": 3902,
      "Ġelvish": 3903,
      "Ġcheer": 3904,
      "ensive": 3905,
      "Ġaccord": 3906,
      "Ġentered": 3907,
      "Ġexplain": 3908,
      "Ġmonth": 3909,
      "Ġmonsters": 3910,
      "Ġmoonlight": 3911,
      "Ġattention": 3912,
      "Ġgiants": 3913,
      "Ġneeded": 3914,
      "Ġfourteen": 3915,
      "Ġshouting": 3916,
      "Ġmovement": 3917,
      "Ġstole": 3918,
      "Ġledge": 3919,
      "Ġinterview": 3920,
      "Ġassured": 3921,
      "Ġordered": 3922,
      "Ġrested": 3923,
      "ĠWhile": 3924,
      "Ġarmour": 3925,
      "engers": 3926,
      "Ġdiscover": 3927,
      "Ġhairy": 3928,
      "Ġsplash": 3929,
      "Ġvision": 3930,
      "ĠZoological": 3931,
      "Ġdecided": 3932,
      "Ġreasonable": 3933,
      "Ġdrinking": 3934,
      "Ġlearn": 3935,
      "Ġcolle": 3936,
      "Ġdisappear": 3937,
      "Ġhoods": 3938,
      "Ġobserv": 3939,
      "Ġmidnight": 3940,
      "Ġhighest": 3941,
      "Ġexistence": 3942,
      "Ġprepar": 3943,
      "Ġgentleman": 3944,
      "Ġstudents": 3945,
      "Ġspirits": 3946,
      "Ġtravel": 3947,
      "Ġpterodactyls": 3948,
      "Ġfaith": 3949,
      "shaped": 3950,
      "Ġterrific": 3951,
      "Ġpocketses": 3952,
      "Ġdangers": 3953,
      "Ġhideous": 3954,
      "Ġhaste": 3955,
      "Ġdescend": 3956,
      "Ġleaping": 3957,
      "Ġbundle": 3958,
      "Ġbundles": 3959,
      "ĠSomething": 3960,
      "Ġsparks": 3961,
      "Ġglimmer": 3962,
      "Ġrescued": 3963,
      "Ġmarshes": 3964,
      "Ġpenetr": 3965,
      "Ġclouds": 3966,
      "Ġchildren": 3967,
      "Ġmutton": 3968,
      "Ġstirred": 3969,
      "Ġsavage": 3970,
      "Ġgathering": 3971,
      "Ġanxious": 3972,
      "Ġcloak": 3973,
      "Ġimpression": 3974,
      "Ġsenses": 3975,
      "Ġbreeze": 3976,
      "Ġheavens": 3977,
      "Ġemerged": 3978,
      "Ġfringe": 3979,
      "Ġfloated": 3980,
      "Ġwarriors": 3981,
      "Ġignor": 3982,
      "Ġfunny": 3983,
      "Ġrepeated": 3984,
      "ription": 3985,
      "Ġdisappo": 3986,
      "Ġintellig": 3987,
      "Ġgroup": 3988,
      "Ġdespair": 3989,
      "Ġnegro": 3990,
      "Ġproblem": 3991,
      "Ġbodies": 3992,
      "Ġfoliage": 3993,
      "Ġmurm": 3994,
      "Ġcloser": 3995,
      "Ġimmense": 3996,
      "'.": 3997,
      "'re": 3998,
      "AR": 3999,
      "At": 4000,
      "Be": 4001,
      "Look": 4002,
      "Never": 4003,
      "One": 4004,
      "Up": 4005,
      "ax": 4006,
      "aos": 4007,
      "bow": 4008,
      "chan": 4009,
      "eople": 4010,
      "gn": 4011,
      "gu": 4012,
      "gan": 4013,
      "gling": 4014,
      "hum": 4015,
      "hood": 4016,
      "ium": 4017,
      "long": 4018,
      "ners": 4019,
      "oc": 4020,
      "pet": 4021,
      "pie": 4022,
      "sy": 4023,
      "summer": 4024,
      "uel": 4025,
      "Ġest": 4026,
      "Ġtonight": 4027,
      "hetic": 4028,
      "inally": 4029,
      "inning": 4030,
      "Ġwife": 4031,
      "Ġwagging": 4032,
      "Ġori": 4033,
      "Ġoak": 4034,
      "rest": 4035,
      "Ġbal": 4036,
      "Ġbows": 4037,
      "erv": 4038,
      "erous": 4039,
      "Ġfond": 4040,
      "Ġfetch": 4041,
      "Ġfitted": 4042,
      "iting": 4043,
      "itute": 4044,
      "Ġmut": 4045,
      "Ġmail": 4046,
      "Ġmoney": 4047,
      "inger": 4048,
      "Ġdut": 4049,
      "Ġdam": 4050,
      "Ġdart": 4051,
      "Ġdue": 4052,
      "Ġtool": 4053,
      "oric": 4054,
      "orious": 4055,
      "Ġlink": 4056,
      "esh": 4057,
      "esides": 4058,
      "ased": 4059,
      "asst": 4060,
      "Ġhind": 4061,
      "Ġhook": 4062,
      "Ġhuts": 4063,
      "Ġhal": 4064,
      "Ġhated": 4065,
      "Ġpan": 4066,
      "Ġpot": 4067,
      "Ġpiles": 4068,
      "Ġpowers": 4069,
      "Ġgained": 4070,
      "Ġnamed": 4071,
      "Ġnasst": 4072,
      "ĠIrish": 4073,
      "Ġbeha": 4074,
      "Ġwasn": 4075,
      "Ġwel": 4076,
      "Ġweeks": 4077,
      "Ġthirst": 4078,
      "Ġstage": 4079,
      "Ġsticking": 4080,
      "Ġstaff": 4081,
      "acy": 4082,
      "aching": 4083,
      "acity": 4084,
      "irty": 4085,
      "Ġwhir": 4086,
      "ette": 4087,
      "Ġaside": 4088,
      "seen": 4089,
      "ĠBl": 4090,
      "Ġforce": 4091,
      "Ġforwards": 4092,
      "Ġreck": 4093,
      "amm": 4094,
      "roar": 4095,
      "road": 4096,
      "rodu": 4097,
      "Ġiss": 4098,
      "Ġsea": 4099,
      "ardon": 4100,
      "Ġbuttons": 4101,
      "Ġmeal": 4102,
      "Ġshri": 4103,
      "Ġshru": 4104,
      "Ġshrie": 4105,
      "Ġshudd": 4106,
      "Ġshivering": 4107,
      "umber": 4108,
      "unk": 4109,
      "unch": 4110,
      "unted": 4111,
      "ĠWild": 4112,
      "ĠWater": 4113,
      "acked": 4114,
      "vest": 4115,
      "Ġnois": 4116,
      "ĠGr": 4117,
      "ĠGaz": 4118,
      "ĠGirion": 4119,
      "Ġspur": 4120,
      "Ġsomeone": 4121,
      "Ġhopes": 4122,
      "venge": 4123,
      "Ġagree": 4124,
      "Ġroar": 4125,
      "hank": 4126,
      "Ġtramp": 4127,
      "Ġtraver": 4128,
      "eping": 4129,
      "ĠLooking": 4130,
      "ĠCr": 4131,
      "warves": 4132,
      "Ġdrooping": 4133,
      "ivered": 4134,
      "Ġflight": 4135,
      "Ġflame": 4136,
      "Ġflesh": 4137,
      "ĠNe": 4138,
      "ĠNor": 4139,
      "ĠPeople": 4140,
      "Ġconvers": 4141,
      "Ġunb": 4142,
      "ĠFar": 4143,
      "ĠFinally": 4144,
      "Ġthrow": 4145,
      "Ġsmiled": 4146,
      "Ġsmashed": 4147,
      "Ġart": 4148,
      "Ġgoods": 4149,
      "Ġprehist": 4150,
      "Ġknowing": 4151,
      "ĠDurin": 4152,
      "Ġprove": 4153,
      "Ġremo": 4154,
      "Ġremind": 4155,
      "Ġworn": 4156,
      "Ġworked": 4157,
      "Ġhowl": 4158,
      "Ġbox": 4159,
      "Ġmostly": 4160,
      "Ġspeech": 4161,
      "Ġpartly": 4162,
      "Ġclean": 4163,
      "Ġcleared": 4164,
      "intered": 4165,
      "Ġmenacing": 4166,
      "Ġskull": 4167,
      "cial": 4168,
      "ilian": 4169,
      "Ġsatisf": 4170,
      "onsense": 4171,
      "Ġcursing": 4172,
      "Ġbreaking": 4173,
      "Ġsunlight": 4174,
      "Ġobsc": 4175,
      "Ġwritten": 4176,
      "Ġsnapped": 4177,
      "oubted": 4178,
      "gged": 4179,
      "Ġquicker": 4180,
      "Ġcheering": 4181,
      "Ġsheet": 4182,
      "Ġuseless": 4183,
      "Ġserious": 4184,
      "Ġaction": 4185,
      "Ġpresently": 4186,
      "Ġreturned": 4187,
      "ification": 4188,
      "Ġjoin": 4189,
      "Ġstrongly": 4190,
      "Ġevident": 4191,
      "Ġyelled": 4192,
      "Ġfearful": 4193,
      "Ġscrat": 4194,
      "Ġdifficulties": 4195,
      "Ġruined": 4196,
      "ĠYes": 4197,
      "Ġholding": 4198,
      "Ġsquat": 4199,
      "Ġsquir": 4200,
      "Ġtea": 4201,
      "Ġdreamed": 4202,
      "Ġearn": 4203,
      "Ġdifference": 4204,
      "Ġfastened": 4205,
      "Ġmagn": 4206,
      "Ġassure": 4207,
      "Ġcommand": 4208,
      "Ġgrassy": 4209,
      "Ġcrying": 4210,
      "Ġsplintered": 4211,
      "Ġcapable": 4212,
      "Ġhatred": 4213,
      "Ġgrowled": 4214,
      "Ġmembr": 4215,
      "Ġfinally": 4216,
      "Ġfighting": 4217,
      "ĠâĢĺâĢĺ": 4218,
      "ĠGoblins": 4219,
      "Ġpalace": 4220,
      "Ġmessengers": 4221,
      "Ġmidsummer": 4222,
      "Ġdepart": 4223,
      "Ġpolic": 4224,
      "Ġpiece": 4225,
      "ĠEngland": 4226,
      "Ġpromised": 4227,
      "Ġechoes": 4228,
      "Ġsloping": 4229,
      "Ġfinger": 4230,
      "Ġrecover": 4231,
      "Ġexpression": 4232,
      "Ġdangling": 4233,
      "Ġcellars": 4234,
      "Ġtriump": 4235,
      "Ġwhistle": 4236,
      "ĠSometimes": 4237,
      "Ġsolid": 4238,
      "osaurus": 4239,
      "Ġrescue": 4240,
      "Ġdinosaur": 4241,
      "Ġtongue": 4242,
      "arrel": 4243,
      "Ġinterrupted": 4244,
      "Ġvillage": 4245,
      "Ġpossibly": 4246,
      "ĠQuick": 4247,
      "Ġwinter": 4248,
      "Ġfailed": 4249,
      "Ġpuffing": 4250,
      "Ġenchanted": 4251,
      "Ġphotographs": 4252,
      "kerchief": 4253,
      "ĠOthers": 4254,
      "Ġreplied": 4255,
      "Ġexceedingly": 4256,
      "Ġsoul": 4257,
      "Ġmotionless": 4258,
      "Ġgrip": 4259,
      "Ġthreads": 4260,
      "Ġhistory": 4261,
      "ĠManaos": 4262,
      "Ġdemonstr": 4263,
      "Ġshelter": 4264,
      "Ġplunged": 4265,
      "Ġunfortunate": 4266,
      "mission": 4267,
      "Ġwestern": 4268,
      "Ġboulders": 4269,
      "Ġferocious": 4270,
      "Ġcolleague": 4271,
      "Ġduty": 4272,
      "Ġnassty": 4273,
      "ĠGazette": 4274,
      "Ġprehistoric": 4275,
      ");": 4276,
      "Dear": 4277,
      "ER": 4278,
      "Lord": 4279,
      "Re": 4280,
      "abl": 4281,
      "bout": 4282,
      "eep": 4283,
      "fern": 4284,
      "gest": 4285,
      "hus": 4286,
      "iers": 4287,
      "ios": 4288,
      "ips": 4289,
      "ipping": 4290,
      "mosp": 4291,
      "nes": 4292,
      "nal": 4293,
      "nings": 4294,
      "onder": 4295,
      "ph": 4296,
      "pow": 4297,
      "pose": 4298,
      "pond": 4299,
      "rs": 4300,
      "rous": 4301,
      "son": 4302,
      "ton": 4303,
      "tle": 4304,
      "then": 4305,
      "uc": 4306,
      "upp": 4307,
      "whe": 4308,
      "work": 4309,
      "xed": 4310,
      "Ġtid": 4311,
      "Ġtest": 4312,
      "Ġtail": 4313,
      "Ġtattered": 4314,
      "inced": 4315,
      "Ġscept": 4316,
      "Ġshattered": 4317,
      "Ġow": 4318,
      "Ġobl": 4319,
      "rees": 4320,
      "reet": 4321,
      "oured": 4322,
      "Ġban": 4323,
      "Ġble": 4324,
      "Ġbul": 4325,
      "Ġbord": 4326,
      "Ġbread": 4327,
      "Ġbumped": 4328,
      "Ġbirth": 4329,
      "Ġbacon": 4330,
      "erves": 4331,
      "erial": 4332,
      "Ġfre": 4333,
      "Ġfit": 4334,
      "Ġfil": 4335,
      "Ġfixed": 4336,
      "Ġce": 4337,
      "Ġcous": 4338,
      "Ġcig": 4339,
      "Ġcool": 4340,
      "ednes": 4341,
      "itish": 4342,
      "ithered": 4343,
      "Ġmale": 4344,
      "llous": 4345,
      "enry": 4346,
      "Ġdus": 4347,
      "Ġdull": 4348,
      "Ġdense": 4349,
      "Ġdaring": 4350,
      "Ġdining": 4351,
      "asc": 4352,
      "Ġhid": 4353,
      "Ġhous": 4354,
      "Ġhoney": 4355,
      "Ġinqu": 4356,
      "Ġpig": 4357,
      "Ġpage": 4358,
      "Ġpity": 4359,
      "Ġpier": 4360,
      "Ġpadd": 4361,
      "Ġgn": 4362,
      "Ġgur": 4363,
      "Ġgap": 4364,
      "omin": 4365,
      "idable": 4366,
      "idently": 4367,
      "ĠTr": 4368,
      "Ġthong": 4369,
      "Ġthumb": 4370,
      "Ġrid": 4371,
      "Ġrad": 4372,
      "Ġrushing": 4373,
      "Ġstret": 4374,
      "Ġstaring": 4375,
      "Ġstamped": 4376,
      "ettle": 4377,
      "Ġhiss": 4378,
      "Ġash": 4379,
      "Ġassem": 4380,
      "ĠBur": 4381,
      "ilight": 4382,
      "ality": 4383,
      "Ġreward": 4384,
      "Ġreasons": 4385,
      "Ġant": 4386,
      "Ġanger": 4387,
      "Ġancest": 4388,
      "Ġatmosp": 4389,
      "ama": 4390,
      "Ġupper": 4391,
      "Ġupset": 4392,
      "Ġuproar": 4393,
      "illy": 4394,
      "Ġfrown": 4395,
      "Ġisol": 4396,
      "Ġsevere": 4397,
      "tercop": 4398,
      "ĠAre": 4399,
      "ĠAust": 4400,
      "ĠAss": 4401,
      "ĠAgain": 4402,
      "alled": 4403,
      "Ġmyst": 4404,
      "ĠSurely": 4405,
      "ĠHenry": 4406,
      "Ġshown": 4407,
      "unic": 4408,
      "astic": 4409,
      "anda": 4410,
      "Ġsold": 4411,
      "Ġleaning": 4412,
      "ĠMass": 4413,
      "ĠMany": 4414,
      "Ġdog": 4415,
      "Ġdeb": 4416,
      "Ġdept": 4417,
      "Ġdevel": 4418,
      "Ġseeking": 4419,
      "Ġspy": 4420,
      "Ġbrack": 4421,
      "Ġbrother": 4422,
      "Ġven": 4423,
      "Ġplains": 4424,
      "Ġplunder": 4425,
      "Ġintoler": 4426,
      "ests": 4427,
      "Ġroaring": 4428,
      "Ġtrail": 4429,
      "Ġtruly": 4430,
      "Ġknocked": 4431,
      "igation": 4432,
      "icken": 4433,
      "olen": 4434,
      "oles": 4435,
      "ĠNone": 4436,
      "Ġblaz": 4437,
      "ĠPress": 4438,
      "ĠPres": 4439,
      "ĠPara": 4440,
      "ĠPerson": 4441,
      "Ġconfess": 4442,
      "Ġconcl": 4443,
      "Ġslim": 4444,
      "Ġslip": 4445,
      "bber": 4446,
      "bbed": 4447,
      "Ġune": 4448,
      "ĠFort": 4449,
      "Ġtwilight": 4450,
      "Ġthrowing": 4451,
      "mering": 4452,
      "Ġthanks": 4453,
      "Ġstrang": 4454,
      "ĠEx": 4455,
      "Ġgoodness": 4456,
      "Ġenjo": 4457,
      "Ġscene": 4458,
      "Ġcover": 4459,
      "Ġcoal": 4460,
      "eman": 4461,
      "ĠDar": 4462,
      "Ġprodu": 4463,
      "Ġglared": 4464,
      "Ġcrit": 4465,
      "Ġacid": 4466,
      "Ġsays": 4467,
      "Ġboiling": 4468,
      "Ġboomed": 4469,
      "Ġfellows": 4470,
      "Ġloved": 4471,
      "Ġdoorstep": 4472,
      "Ġpeering": 4473,
      "Ġpeaks": 4474,
      "Ġspear": 4475,
      "Ġspecial": 4476,
      "Ġchasm": 4477,
      "Ġeveryone": 4478,
      "Ġeverywhere": 4479,
      "Ġchin": 4480,
      "Ġsooner": 4481,
      "lessly": 4482,
      "Ġcarn": 4483,
      "Ġperil": 4484,
      "ĠBehind": 4485,
      "iliar": 4486,
      "Ġdistr": 4487,
      "Ġsuppl": 4488,
      "Ġedit": 4489,
      "Ġsurround": 4490,
      "Ġcursed": 4491,
      "Ġcurios": 4492,
      "Ġapart": 4493,
      "Ġmaterial": 4494,
      "Ġbreast": 4495,
      "soci": 4496,
      "Ġobt": 4497,
      "Ġlowest": 4498,
      "Ġtelling": 4499,
      "Ġwrath": 4500,
      "Ġsnap": 4501,
      "Ġwarning": 4502,
      "Ġwarned": 4503,
      "Ġletters": 4504,
      "Ġcontents": 4505,
      "Ġcheered": 4506,
      "Ġretreat": 4507,
      "Ġmissing": 4508,
      "Ġmission": 4509,
      "Ġmischief": 4510,
      "respond": 4511,
      "Ġaccident": 4512,
      "Ġexplore": 4513,
      "Ġserve": 4514,
      "Ġhearing": 4515,
      "Ġactual": 4516,
      "Ġmonkey": 4517,
      "Ġfacts": 4518,
      "Ġappreci": 4519,
      "Ġmeaning": 4520,
      "Ġawful": 4521,
      "Ġemb": 4522,
      "Ġthickly": 4523,
      "Ġvalleys": 4524,
      "Ġcircling": 4525,
      "Ġruin": 4526,
      "Ġrefu": 4527,
      "Ġdrove": 4528,
      "Ġhunted": 4529,
      "Ġremarked": 4530,
      "Ġchart": 4531,
      "ernal": 4532,
      "Ġdreadfully": 4533,
      "Ġinteresting": 4534,
      "Ġchairman": 4535,
      "Ġcatching": 4536,
      "Ġpatch": 4537,
      "Ġcutting": 4538,
      "Ġservants": 4539,
      "uttered": 4540,
      "Ġdecent": 4541,
      "Ġaddress": 4542,
      "Ġpurpose": 4543,
      "upuri": 4544,
      "Ġfigures": 4545,
      "Ġformidable": 4546,
      "Ġdescription": 4547,
      "Ġinvisible": 4548,
      "Ġelect": 4549,
      "Ġeleven": 4550,
      "Ġsmoking": 4551,
      "Ġfamily": 4552,
      "Ġfamiliar": 4553,
      "Ġconfidence": 4554,
      "Ġfinal": 4555,
      "Ġfinished": 4556,
      "Ġoccasionally": 4557,
      "Ġgleaming": 4558,
      "Ġpacks": 4559,
      "Ġnumbers": 4560,
      "Ġargue": 4561,
      "Ġtouched": 4562,
      "Ġmidst": 4563,
      "Ġkeys": 4564,
      "Ġinfernal": 4565,
      "Ġtracks": 4566,
      "Ġgloomy": 4567,
      "Ġstudy": 4568,
      "Ġworthy": 4569,
      "Ġdelighted": 4570,
      "Ġscramble": 4571,
      "Ġfault": 4572,
      "Ġstatement": 4573,
      "Ġsqueaked": 4574,
      "Ġdiscussed": 4575,
      "Ġdiscussing": 4576,
      "Ġtangle": 4577,
      "Ġenemy": 4578,
      "Ġsweet": 4579,
      "breeds": 4580,
      "Ġcorrespond": 4581,
      "Ġlimited": 4582,
      "Ġleathery": 4583,
      "Ġopport": 4584,
      "Ġoppos": 4585,
      "Ġportion": 4586,
      "Ġwhistling": 4587,
      "Ġglimps": 4588,
      "Ġviolent": 4589,
      "Ġviolence": 4590,
      "Ġdinner": 4591,
      "Ġpropose": 4592,
      "Ġproceedings": 4593,
      "Ġzoolog": 4594,
      "Ġhesitated": 4595,
      "Ġripp": 4596,
      "Ġblankets": 4597,
      "Ġtwinkling": 4598,
      "Ġarrived": 4599,
      "Ġechoed": 4600,
      "Ġiguanodon": 4601,
      "Ġiguanodons": 4602,
      "Ġsacks": 4603,
      "Ġextreme": 4604,
      "Ġengaged": 4605,
      "Ġscarlet": 4606,
      "Ġwhispering": 4607,
      "Ġprivate": 4608,
      "Ġtask": 4609,
      "Ġfancy": 4610,
      "Ġchuckled": 4611,
      "Ġlurking": 4612,
      "arently": 4613,
      "Ġprimitive": 4614,
      "Ġobvious": 4615,
      "Ġrapidly": 4616,
      "Ġpillars": 4617,
      "Ġbewild": 4618,
      "Ġnodded": 4619,
      "ĠCompany": 4620,
      "ĠEuropean": 4621,
      "ĠInstitute": 4622,
      "Ġmarvellous": 4623,
      "Ġdetermined": 4624,
      "Ġbasalt": 4625,
      "Ġskelet": 4626,
      "Ġballoon": 4627,
      "Ġfarewell": 4628,
      "Ġlimbs": 4629,
      "Ġlegend": 4630,
      "Ġdeclared": 4631,
      "Ġsplendid": 4632,
      "Ġknocking": 4633,
      "Ġpopular": 4634,
      "Ġenergy": 4635,
      "Ġprofession": 4636,
      "Ġdisappointed": 4637,
      "piece": 4638,
      "Ġorigin": 4639,
      "Ġtools": 4640,
      "Ġhalted": 4641,
      "Ġshriek": 4642,
      "Ġtraversed": 4643,
      "Ġconversation": 4644,
      "oubtedly": 4645,
      "Ġpoliceman": 4646,
      "ednesday": 4647,
      "Ġdusk": 4648,
      "Ġatmosphere": 4649,
      "Ġisolated": 4650,
      "Ġdepth": 4651,
      "Ġcuriosity": 4652,
      "Any": 4653,
      "Bilbo": 4654,
      "Can": 4655,
      "Challenger": 4656,
      "OR": 4657,
      "OU": 4658,
      "Professor": 4659,
      "Surely": 4660,
      "Thank": 4661,
      "bed": 4662,
      "bac": 4663,
      "chen": 4664,
      "der": 4665,
      "fly": 4666,
      "ike": 4667,
      "iest": 4668,
      "iasm": 4669,
      "kin": 4670,
      "more": 4671,
      "mare": 4672,
      "ob": 4673,
      "py": 4674,
      "pit": 4675,
      "pir": 4676,
      "path": 4677,
      "pical": 4678,
      "ray": 4679,
      "ram": 4680,
      "sl": 4681,
      "say": 4682,
      "spe": 4683,
      "tal": 4684,
      "win": 4685,
      "wor": 4686,
      "who": 4687,
      "welt": 4688,
      "Ġ.": 4689,
      "Ġer": 4690,
      "Ġtent": 4691,
      "Ġtie": 4692,
      "Ġtip": 4693,
      "Ġaver": 4694,
      "Ġaxes": 4695,
      "Ġwid": 4696,
      "Ġwars": 4697,
      "Ġwider": 4698,
      "Ġsout": 4699,
      "Ġswar": 4700,
      "Ġodd": 4701,
      "Ġoaks": 4702,
      "hab": 4703,
      "hand": 4704,
      "ouched": 4705,
      "Ġben": 4706,
      "Ġband": 4707,
      "Ġbark": 4708,
      "Ġbite": 4709,
      "Ġfun": 4710,
      "Ġfile": 4711,
      "Ġfaced": 4712,
      "Ġfaded": 4713,
      "Ġfasc": 4714,
      "Ġchat": 4715,
      "Ġcred": 4716,
      "Ġcong": 4717,
      "Ġcake": 4718,
      "Ġcord": 4719,
      "Ġciv": 4720,
      "Ġcakes": 4721,
      "Ġcaused": 4722,
      "itchen": 4723,
      "Ġmant": 4724,
      "Ġmount": 4725,
      "Ġmud": 4726,
      "Ġmidd": 4727,
      "ingly": 4728,
      "Ġdi": 4729,
      "Ġdou": 4730,
      "Ġdate": 4731,
      "Ġdried": 4732,
      "Ġdress": 4733,
      "Ġdying": 4734,
      "Ġdwelt": 4735,
      "Ġtoast": 4736,
      "Ġtoday": 4737,
      "Ġtobac": 4738,
      "orter": 4739,
      "Ġlest": 4740,
      "Ġlines": 4741,
      "ashes": 4742,
      "Ġinn": 4743,
      "Ġinches": 4744,
      "Ġinner": 4745,
      "Ġinvest": 4746,
      "Ġinhab": 4747,
      "Ġped": 4748,
      "Ġpace": 4749,
      "Ġgen": 4750,
      "Ġgest": 4751,
      "Ġgaun": 4752,
      "Ġbeer": 4753,
      "Ġbeak": 4754,
      "Ġbeating": 4755,
      "Ġbeech": 4756,
      "owl": 4757,
      "Ġegg": 4758,
      "Ġeggs": 4759,
      "otting": 4760,
      "ĠTarp": 4761,
      "icion": 4762,
      "Ġthief": 4763,
      "Ġrag": 4764,
      "Ġrare": 4765,
      "Ġrang": 4766,
      "Ġrows": 4767,
      "Ġratt": 4768,
      "Ġriddles": 4769,
      "iment": 4770,
      "urass": 4771,
      "Ġstore": 4772,
      "Ġstag": 4773,
      "Ġstock": 4774,
      "Ġstooped": 4775,
      "Ġstooping": 4776,
      "Ġstolen": 4777,
      "aca": 4778,
      "ache": 4779,
      "irt": 4780,
      "eting": 4781,
      "Ġhissing": 4782,
      "Ġaspha": 4783,
      "Ġassoci": 4784,
      "ĠBack": 4785,
      "Ġforms": 4786,
      "Ġforced": 4787,
      "iliz": 4788,
      "ility": 4789,
      "adually": 4790,
      "Ġredd": 4791,
      "Ġrecom": 4792,
      "Ġfrag": 4793,
      "roken": 4794,
      "Ġisland": 4795,
      "Ġallowed": 4796,
      "terday": 4797,
      "pelled": 4798,
      "ĠSc": 4799,
      "ĠSe": 4800,
      "ĠSl": 4801,
      "ĠSw": 4802,
      "ĠSince": 4803,
      "arded": 4804,
      "ĠHigh": 4805,
      "ĠHouse": 4806,
      "Ġshows": 4807,
      "ĠWas": 4808,
      "ĠWednesday": 4809,
      "Ġfee": 4810,
      "Ġfever": 4811,
      "Ġkicked": 4812,
      "Ġkettle": 4813,
      "Ġkitchen": 4814,
      "Ġliz": 4815,
      "Ġlips": 4816,
      "ĠMe": 4817,
      "ĠMore": 4818,
      "Ġdod": 4819,
      "Ġdogs": 4820,
      "Ġnobody": 4821,
      "Ġnoises": 4822,
      "Ġalert": 4823,
      "Ġdepe": 4824,
      "Ġdeli": 4825,
      "ously": 4826,
      "ĠGet": 4827,
      "ĠGond": 4828,
      "Ġexte": 4829,
      "Ġexcl": 4830,
      "ulous": 4831,
      "quent": 4832,
      "using": 4833,
      "usive": 4834,
      "Ġspinning": 4835,
      "Ġbrass": 4836,
      "Ġsomebody": 4837,
      "Ġju": 4838,
      "Ġjaws": 4839,
      "Ġclapped": 4840,
      "Ġclub": 4841,
      "Ġclinging": 4842,
      "Ġclums": 4843,
      "Ġvap": 4844,
      "Ġpluck": 4845,
      "ĠIts": 4846,
      "ieves": 4847,
      "estion": 4848,
      "ortion": 4849,
      "elled": 4850,
      "ĠLe": 4851,
      "ĠCol": 4852,
      "ĠCare": 4853,
      "istic": 4854,
      "Ġgrat": 4855,
      "Ġgrown": 4856,
      "Ġgreatest": 4857,
      "Ġmoving": 4858,
      "Ġdrown": 4859,
      "ĠOh": 4860,
      "olin": 4861,
      "olate": 4862,
      "olation": 4863,
      "Ġflood": 4864,
      "Ġflashed": 4865,
      "Ġblow": 4866,
      "Ġblink": 4867,
      "Ġblunder": 4868,
      "Ġconve": 4869,
      "Ġconqu": 4870,
      "Ġconven": 4871,
      "Ġslain": 4872,
      "Ġslate": 4873,
      "Ġslung": 4874,
      "Ġslumber": 4875,
      "Ġslipping": 4876,
      "arer": 4877,
      "ares": 4878,
      "Ġunlike": 4879,
      "Ġunseen": 4880,
      "Ġstring": 4881,
      "ĠEd": 4882,
      "ĠEn": 4883,
      "ĠEach": 4884,
      "ĠElves": 4885,
      "Ġoffice": 4886,
      "Ġarched": 4887,
      "Ġscale": 4888,
      "Ġshouldn": 4889,
      "Ġcocked": 4890,
      "Ġcopy": 4891,
      "ĠDid": 4892,
      "ĠDain": 4893,
      "Ġprod": 4894,
      "Ġshaken": 4895,
      "Ġswim": 4896,
      "Ġglint": 4897,
      "Ġunderne": 4898,
      "thy": 4899,
      "Ġrounded": 4900,
      "olly": 4901,
      "Ġcrushed": 4902,
      "fts": 4903,
      "Ġworking": 4904,
      "Ġends": 4905,
      "izon": 4906,
      "Ġboots": 4907,
      "Ġbobbing": 4908,
      "Ġexplo": 4909,
      "Ġexposed": 4910,
      "Ġturns": 4911,
      "Ġhobbits": 4912,
      "These": 4913,
      "Ġadm": 4914,
      "Ġnightmare": 4915,
      "ĠProfessors": 4916,
      "Ġpasses": 4917,
      "Ġspend": 4918,
      "Ġchain": 4919,
      "Ġchamber": 4920,
      "Ġchose": 4921,
      "Ġwoodland": 4922,
      "uding": 4923,
      "Ġunto": 4924,
      "azy": 4925,
      "Ġdesk": 4926,
      "erence": 4927,
      "Ġfriendly": 4928,
      "Ġhorizon": 4929,
      "Ġperched": 4930,
      "Ġpermission": 4931,
      "Ġmenace": 4932,
      "Ġbush": 4933,
      "Ġcompl": 4934,
      "abs": 4935,
      "abor": 4936,
      "Ġsupport": 4937,
      "irds": 4938,
      "Ġsteal": 4939,
      "Ġstealth": 4940,
      "Ġchances": 4941,
      "Ġcurse": 4942,
      "Ġwants": 4943,
      "Ġmatch": 4944,
      "Ġreserve": 4945,
      "ĠWhatever": 4946,
      "Ġshadowed": 4947,
      "Ġsounds": 4948,
      "Ġcontent": 4949,
      "ormation": 4950,
      "Ġelabor": 4951,
      "Ġdoubted": 4952,
      "Ġaccomp": 4953,
      "Ġguesses": 4954,
      "Ġenthus": 4955,
      "Ġbargain": 4956,
      "Ġfriendship": 4957,
      "Ġexplos": 4958,
      "Ġkeeps": 4959,
      "Ġactiv": 4960,
      "uffling": 4961,
      "Ġgiving": 4962,
      "Ġstands": 4963,
      "Ġapples": 4964,
      "Ġapparently": 4965,
      "Ġconscious": 4966,
      "Ġevents": 4967,
      "Ġawa": 4968,
      "Ġyells": 4969,
      "Ġangle": 4970,
      "Ġmovements": 4971,
      "Ġwildly": 4972,
      "Ġbub": 4973,
      "Ġloudly": 4974,
      "Ġinstinct": 4975,
      "Ġsafely": 4976,
      "Ġmarks": 4977,
      "Ġrefused": 4978,
      "Ġbesides": 4979,
      "Ġdrop": 4980,
      "ĠUn": 4981,
      "Ġhunger": 4982,
      "Ġassert": 4983,
      "Ġcommotion": 4984,
      "Ġpreciouss": 4985,
      "Ġremarks": 4986,
      "Ġimagination": 4987,
      "Ġwander": 4988,
      "Ġclosely": 4989,
      "Ġbadly": 4990,
      "Ġmethod": 4991,
      "Ġtroubles": 4992,
      "Ġsplit": 4993,
      "ĠHowever": 4994,
      "Ġbreathing": 4995,
      "Ġdetached": 4996,
      "Ġdetails": 4997,
      "Ġincon": 4998,
      "Ġincred": 4999
    },
    "merges": [
      [
        "Ġ",
        "t"
      ],
      [
        "h",
        "e"
      ],
      [
        "Ġ",
        "a"
      ],
      [
        "Ġt",
        "he"
      ],
      [
        "i",
        "n"
      ],
      [
        "Ġ",
        "w"
      ],
      [
        "Ġ",
        "s"
      ],
      [
        "Ġ",
        "o"
      ],
      [
        "r",
        "e"
      ],
      [
        "n",
        "d"
      ],
      [
        "h",
        "a"
      ],
      [
        "o",
        "u"
      ],
      [
        "Ġ",
        "b"
      ],
      [
        "e",
        "r"
      ],
      [
        "Ġ",
        "f"
      ],
      [
        "Ġa",
        "nd"
      ],
      [
        "Ġ",
        "c"
      ],
      [
        "e",
        "d"
      ],
      [
        "i",
        "t"
      ],
      [
        "Ġ",
        "m"
      ],
      [
        "Ġo",
        "f"
      ],
      [
        "in",
        "g"
      ],
      [
        "l",
        "l"
      ],
      [
        "e",
        "n"
      ],
      [
        "o",
        "n"
      ],
      [
        "Ġ",
        "d"
      ],
      [
        "i",
        "s"
      ],
      [
        "Ġt",
        "o"
      ],
      [
        "o",
        "r"
      ],
      [
        "Ġ",
        "l"
      ],
      [
        "e",
        "s"
      ],
      [
        "a",
        "s"
      ],
      [
        "a",
        "r"
      ],
      [
        "Ġ",
        "h"
      ],
      [
        "â",
        "Ģ"
      ],
      [
        "Ġ",
        "ha"
      ],
      [
        "Ġ",
        "in"
      ],
      [
        "Ġ",
        "p"
      ],
      [
        "Ġ",
        "g"
      ],
      [
        "Ġ",
        "n"
      ],
      [
        "Ġ",
        "he"
      ],
      [
        "Ġ",
        "I"
      ],
      [
        "a",
        "t"
      ],
      [
        "a",
        "n"
      ],
      [
        "ha",
        "t"
      ],
      [
        "o",
        "m"
      ],
      [
        "Ġb",
        "e"
      ],
      [
        "o",
        "w"
      ],
      [
        "l",
        "e"
      ],
      [
        "Ġw",
        "as"
      ],
      [
        "i",
        "d"
      ],
      [
        "Ġ",
        "u"
      ],
      [
        "u",
        "t"
      ],
      [
        "Ġ",
        "e"
      ],
      [
        "o",
        "t"
      ],
      [
        "Ġw",
        "e"
      ],
      [
        "l",
        "d"
      ],
      [
        "Ġ",
        "it"
      ],
      [
        "g",
        "h"
      ],
      [
        "Ġ",
        "T"
      ],
      [
        "v",
        "e"
      ],
      [
        "Ġ",
        "y"
      ],
      [
        "i",
        "c"
      ],
      [
        "Ġt",
        "h"
      ],
      [
        "Ġo",
        "n"
      ],
      [
        "Ġt",
        "hat"
      ],
      [
        "Ġ",
        "r"
      ],
      [
        "s",
        "t"
      ],
      [
        "l",
        "y"
      ],
      [
        "i",
        "m"
      ],
      [
        "u",
        "r"
      ],
      [
        "v",
        "er"
      ],
      [
        "Ġy",
        "ou"
      ],
      [
        "Ġ",
        "âĢ"
      ],
      [
        "Ġs",
        "t"
      ],
      [
        "a",
        "c"
      ],
      [
        "i",
        "r"
      ],
      [
        "a",
        "y"
      ],
      [
        "Ġha",
        "d"
      ],
      [
        "Ġw",
        "h"
      ],
      [
        "e",
        "t"
      ],
      [
        "Ġh",
        "is"
      ],
      [
        "Ġa",
        "s"
      ],
      [
        "it",
        "h"
      ],
      [
        "gh",
        "t"
      ],
      [
        "s",
        "e"
      ],
      [
        "ou",
        "ld"
      ],
      [
        "o",
        "o"
      ],
      [
        "Ġw",
        "ith"
      ],
      [
        "ĠT",
        "he"
      ],
      [
        "Ġ",
        "B"
      ],
      [
        "Ġf",
        "or"
      ],
      [
        "ĠâĢ",
        "ľ"
      ],
      [
        "en",
        "t"
      ],
      [
        "Ġthe",
        "y"
      ],
      [
        "âĢ",
        "Ŀ"
      ],
      [
        "i",
        "l"
      ],
      [
        "Ġs",
        "a"
      ],
      [
        "a",
        "l"
      ],
      [
        "a",
        "d"
      ],
      [
        "Ġn",
        "ot"
      ],
      [
        "Ġ",
        "re"
      ],
      [
        "Ġ",
        "\""
      ],
      [
        "Ġa",
        "n"
      ],
      [
        "k",
        "e"
      ],
      [
        "o",
        "re"
      ],
      [
        "Ġa",
        "t"
      ],
      [
        "a",
        "m"
      ],
      [
        "Ġu",
        "p"
      ],
      [
        "Ġwe",
        "re"
      ],
      [
        "i",
        "ll"
      ],
      [
        "i",
        "ght"
      ],
      [
        "i",
        "f"
      ],
      [
        "Ġf",
        "r"
      ],
      [
        "a",
        "in"
      ],
      [
        "i",
        "on"
      ],
      [
        "r",
        "o"
      ],
      [
        "c",
        "e"
      ],
      [
        "om",
        "e"
      ],
      [
        "Ġ",
        "is"
      ],
      [
        "Ġs",
        "e"
      ],
      [
        "Ġa",
        "ll"
      ],
      [
        "Ġha",
        "ve"
      ],
      [
        "he",
        "r"
      ],
      [
        "a",
        "g"
      ],
      [
        "t",
        "er"
      ],
      [
        "Ġsa",
        "id"
      ],
      [
        "Ġ",
        "A"
      ],
      [
        "Ġthe",
        "m"
      ],
      [
        "re",
        "d"
      ],
      [
        "ic",
        "h"
      ],
      [
        "on",
        "g"
      ],
      [
        "a",
        "ll"
      ],
      [
        "Ġm",
        "y"
      ],
      [
        "p",
        "e"
      ],
      [
        "Ġ",
        "S"
      ],
      [
        "Ġh",
        "im"
      ],
      [
        "ar",
        "d"
      ],
      [
        "Ġ",
        "H"
      ],
      [
        "Ġwh",
        "ich"
      ],
      [
        "Ġb",
        "ut"
      ],
      [
        "b",
        "o"
      ],
      [
        "Ġm",
        "e"
      ],
      [
        "es",
        "s"
      ],
      [
        "c",
        "h"
      ],
      [
        "Ġs",
        "h"
      ],
      [
        "u",
        "m"
      ],
      [
        "u",
        "n"
      ],
      [
        "oo",
        "d"
      ],
      [
        "Ġfr",
        "om"
      ],
      [
        "Ġthe",
        "ir"
      ],
      [
        "Ġc",
        "ould"
      ],
      [
        "Ġ",
        "W"
      ],
      [
        "Ġf",
        "e"
      ],
      [
        "as",
        "t"
      ],
      [
        "ac",
        "k"
      ],
      [
        "a",
        "nd"
      ],
      [
        "v",
        "es"
      ],
      [
        "Ġs",
        "o"
      ],
      [
        "ou",
        "nd"
      ],
      [
        "Ġn",
        "e"
      ],
      [
        "ou",
        "t"
      ],
      [
        "Ġw",
        "he"
      ],
      [
        "Ġ",
        "k"
      ],
      [
        "ow",
        "n"
      ],
      [
        "n",
        "t"
      ],
      [
        "Ġo",
        "ur"
      ],
      [
        "Ġo",
        "ut"
      ],
      [
        "r",
        "i"
      ],
      [
        "Ġthe",
        "re"
      ],
      [
        "âĢ",
        "Ļ"
      ],
      [
        "Ġg",
        "o"
      ],
      [
        "Ġo",
        "r"
      ],
      [
        "Ġs",
        "u"
      ],
      [
        "Ġl",
        "i"
      ],
      [
        "Ġl",
        "e"
      ],
      [
        "b",
        "le"
      ],
      [
        "Ġ",
        "M"
      ],
      [
        "Ġd",
        "o"
      ],
      [
        "re",
        "at"
      ],
      [
        "p",
        "p"
      ],
      [
        "in",
        "d"
      ],
      [
        "Ġn",
        "o"
      ],
      [
        "ĠH",
        "e"
      ],
      [
        "ver",
        "y"
      ],
      [
        "Ġon",
        "e"
      ],
      [
        "c",
        "t"
      ],
      [
        "Ġa",
        "l"
      ],
      [
        "Ġd",
        "e"
      ],
      [
        "Ġu",
        "s"
      ],
      [
        "g",
        "e"
      ],
      [
        "ou",
        "s"
      ],
      [
        "u",
        "st"
      ],
      [
        "il",
        "bo"
      ],
      [
        "ĠB",
        "ilbo"
      ],
      [
        "Ġ",
        "G"
      ],
      [
        "c",
        "k"
      ],
      [
        "Ġth",
        "is"
      ],
      [
        "Ġse",
        "e"
      ],
      [
        "Ġe",
        "x"
      ],
      [
        "u",
        "l"
      ],
      [
        "Ġin",
        "t"
      ],
      [
        "ou",
        "gh"
      ],
      [
        "Ġb",
        "y"
      ],
      [
        "on",
        "e"
      ],
      [
        "u",
        "re"
      ],
      [
        "id",
        "e"
      ],
      [
        "q",
        "u"
      ],
      [
        "Ġa",
        "re"
      ],
      [
        "!",
        "âĢĿ"
      ],
      [
        "u",
        "s"
      ],
      [
        "Ġw",
        "ould"
      ],
      [
        "Ġd",
        "own"
      ],
      [
        "Ġs",
        "p"
      ],
      [
        "Ġb",
        "r"
      ],
      [
        "am",
        "e"
      ],
      [
        "Ġs",
        "ome"
      ],
      [
        "oo",
        "k"
      ],
      [
        "Ġ",
        "j"
      ],
      [
        "Ġc",
        "l"
      ],
      [
        "Ġ",
        "v"
      ],
      [
        "Ġh",
        "o"
      ],
      [
        "h",
        "ing"
      ],
      [
        "Ġup",
        "on"
      ],
      [
        "Ġp",
        "l"
      ],
      [
        "ĠI",
        "t"
      ],
      [
        ".",
        "\""
      ],
      [
        "i",
        "e"
      ],
      [
        "Ġint",
        "o"
      ],
      [
        "a",
        "k"
      ],
      [
        "v",
        "en"
      ],
      [
        "ar",
        "t"
      ],
      [
        "Ġa",
        "g"
      ],
      [
        "Ġa",
        "m"
      ],
      [
        "an",
        "t"
      ],
      [
        "ou",
        "r"
      ],
      [
        "es",
        "t"
      ],
      [
        "Ġr",
        "o"
      ],
      [
        "a",
        "ke"
      ],
      [
        "he",
        "d"
      ],
      [
        "ha",
        "n"
      ],
      [
        "Ġt",
        "r"
      ],
      [
        "a",
        "u"
      ],
      [
        "or",
        "t"
      ],
      [
        "Ġk",
        "n"
      ],
      [
        "e",
        "p"
      ],
      [
        "ĠT",
        "h"
      ],
      [
        "Ġ",
        "if"
      ],
      [
        "or",
        "d"
      ],
      [
        "Ġbe",
        "en"
      ],
      [
        "a",
        "p"
      ],
      [
        "s",
        "s"
      ],
      [
        "-",
        "-"
      ],
      [
        "Ġm",
        "ore"
      ],
      [
        "Ġm",
        "an"
      ],
      [
        "f",
        "ore"
      ],
      [
        "er",
        "s"
      ],
      [
        "l",
        "f"
      ],
      [
        "at",
        "e"
      ],
      [
        "Ġa",
        "b"
      ],
      [
        "ou",
        "nt"
      ],
      [
        "Ġwhe",
        "n"
      ],
      [
        "e",
        "ll"
      ],
      [
        "Ġ",
        "L"
      ],
      [
        "b",
        "l"
      ],
      [
        "Ġ",
        "C"
      ],
      [
        "Ġw",
        "ill"
      ],
      [
        "t",
        "her"
      ],
      [
        "Ġp",
        "o"
      ],
      [
        "Ġc",
        "an"
      ],
      [
        "Ġli",
        "ke"
      ],
      [
        "Ġb",
        "ack"
      ],
      [
        "Ġw",
        "hat"
      ],
      [
        "is",
        "t"
      ],
      [
        "ha",
        "ll"
      ],
      [
        "Ġan",
        "y"
      ],
      [
        "ar",
        "k"
      ],
      [
        "Ġg",
        "r"
      ],
      [
        "Ġyou",
        "r"
      ],
      [
        "Ġ",
        "very"
      ],
      [
        "nd",
        "er"
      ],
      [
        "g",
        "er"
      ],
      [
        "Ġg",
        "reat"
      ],
      [
        "Ġm",
        "o"
      ],
      [
        "Ġ",
        "qu"
      ],
      [
        "Ġwh",
        "o"
      ],
      [
        "it",
        "t"
      ],
      [
        ",",
        "âĢĿ"
      ],
      [
        "e",
        "l"
      ],
      [
        "Ġt",
        "re"
      ],
      [
        "ac",
        "e"
      ],
      [
        "w",
        "ar"
      ],
      [
        "Ġt",
        "im"
      ],
      [
        "Ġl",
        "ong"
      ],
      [
        "Ġo",
        "ver"
      ],
      [
        "i",
        "g"
      ],
      [
        "Ġd",
        "r"
      ],
      [
        "Ġbe",
        "fore"
      ],
      [
        "i",
        "ve"
      ],
      [
        "Ġc",
        "ame"
      ],
      [
        "Ġd",
        "war"
      ],
      [
        "ic",
        "k"
      ],
      [
        "w",
        "ay"
      ],
      [
        "Ġc",
        "om"
      ],
      [
        "Ġ",
        "O"
      ],
      [
        "o",
        "l"
      ],
      [
        "it",
        "e"
      ],
      [
        "Ġf",
        "l"
      ],
      [
        ".",
        "âĢĿ"
      ],
      [
        "in",
        "k"
      ],
      [
        "Ġag",
        "ain"
      ],
      [
        "Ġn",
        "ow"
      ],
      [
        "Ġl",
        "ook"
      ],
      [
        "Ġtim",
        "e"
      ],
      [
        "Ġ",
        "N"
      ],
      [
        "Ġb",
        "l"
      ],
      [
        "Ġab",
        "out"
      ],
      [
        "ou",
        "ght"
      ],
      [
        "Ġ",
        "P"
      ],
      [
        "r",
        "y"
      ],
      [
        "f",
        "ter"
      ],
      [
        "i",
        "re"
      ],
      [
        "Ġc",
        "on"
      ],
      [
        "'",
        "s"
      ],
      [
        ",",
        "\""
      ],
      [
        "e",
        "red"
      ],
      [
        "as",
        "s"
      ],
      [
        "Ġs",
        "l"
      ],
      [
        "Ġon",
        "ly"
      ],
      [
        "b",
        "b"
      ],
      [
        "in",
        "s"
      ],
      [
        "ur",
        "n"
      ],
      [
        "ĠThe",
        "y"
      ],
      [
        "ad",
        "e"
      ],
      [
        "a",
        "re"
      ],
      [
        "i",
        "le"
      ],
      [
        "Ġu",
        "n"
      ],
      [
        "Ġ",
        "F"
      ],
      [
        "ĠâĢ",
        "Ķ"
      ],
      [
        "Ġt",
        "w"
      ],
      [
        "Ġdwar",
        "ves"
      ],
      [
        "Ġth",
        "r"
      ],
      [
        "ĠB",
        "ut"
      ],
      [
        "m",
        "er"
      ],
      [
        "Ġt",
        "han"
      ],
      [
        "Ġst",
        "r"
      ],
      [
        "w",
        "ard"
      ],
      [
        "Ġto",
        "o"
      ],
      [
        "Ġs",
        "m"
      ],
      [
        "Ġo",
        "ther"
      ],
      [
        "d",
        "d"
      ],
      [
        "Ġc",
        "ome"
      ],
      [
        "at",
        "ion"
      ],
      [
        "Ġw",
        "ay"
      ],
      [
        "Ġg",
        "et"
      ],
      [
        "Ġ",
        "E"
      ],
      [
        "Ġof",
        "f"
      ],
      [
        "Ġd",
        "ay"
      ],
      [
        "Ġa",
        "r"
      ],
      [
        "Ġd",
        "id"
      ],
      [
        "Ġg",
        "ood"
      ],
      [
        "all",
        "y"
      ],
      [
        "ount",
        "ain"
      ],
      [
        "itt",
        "le"
      ],
      [
        "ing",
        "s"
      ],
      [
        "Ġl",
        "ittle"
      ],
      [
        "a",
        "ble"
      ],
      [
        "se",
        "lf"
      ],
      [
        "Ġ",
        "en"
      ],
      [
        "or",
        "in"
      ],
      [
        "Ġs",
        "c"
      ],
      [
        "w",
        "n"
      ],
      [
        "Ġha",
        "nd"
      ],
      [
        "Ġp",
        "re"
      ],
      [
        "Ġsh",
        "ould"
      ],
      [
        "Ġkn",
        "ow"
      ],
      [
        "ĠTh",
        "orin"
      ],
      [
        "o",
        "se"
      ],
      [
        "ĠThe",
        "re"
      ],
      [
        "p",
        "t"
      ],
      [
        "Ġc",
        "o"
      ],
      [
        "Ġst",
        "ill"
      ],
      [
        "e",
        "m"
      ],
      [
        "Ġf",
        "ar"
      ],
      [
        "Ġ",
        "D"
      ],
      [
        "Ġa",
        "fter"
      ],
      [
        "Ġl",
        "ast"
      ],
      [
        "Ġp",
        "ro"
      ],
      [
        "he",
        "s"
      ],
      [
        "Ġw",
        "at"
      ],
      [
        "Ġthe",
        "n"
      ],
      [
        "Y",
        "ou"
      ],
      [
        "n",
        "ing"
      ],
      [
        "?",
        "\""
      ],
      [
        "en",
        "ger"
      ],
      [
        "a",
        "ve"
      ],
      [
        "i",
        "ous"
      ],
      [
        "Ġd",
        "ark"
      ],
      [
        "hall",
        "enger"
      ],
      [
        "m",
        "ed"
      ],
      [
        "Ġs",
        "ha"
      ],
      [
        "Ġm",
        "ade"
      ],
      [
        "Ġs",
        "w"
      ],
      [
        "Ġe",
        "y"
      ],
      [
        "Ġe",
        "ven"
      ],
      [
        "ĠC",
        "hallenger"
      ],
      [
        "i",
        "es"
      ],
      [
        "Ġg",
        "l"
      ],
      [
        "en",
        "ce"
      ],
      [
        "Ġl",
        "ight"
      ],
      [
        "in",
        "e"
      ],
      [
        "Ġu",
        "nder"
      ],
      [
        "t",
        "h"
      ],
      [
        "v",
        "ed"
      ],
      [
        "at",
        "h"
      ],
      [
        "ic",
        "e"
      ],
      [
        "Ġth",
        "ought"
      ],
      [
        "Ġr",
        "ound"
      ],
      [
        "ri",
        "ed"
      ],
      [
        "Ġhe",
        "ad"
      ],
      [
        "Ġwhe",
        "re"
      ],
      [
        "Ġthr",
        "ough"
      ],
      [
        "o",
        "ll"
      ],
      [
        "Ġit",
        "s"
      ],
      [
        "ag",
        "e"
      ],
      [
        "o",
        "p"
      ],
      [
        "u",
        "ll"
      ],
      [
        "Ġa",
        "way"
      ],
      [
        "Ġc",
        "r"
      ],
      [
        "Ġre",
        "m"
      ],
      [
        "bb",
        "it"
      ],
      [
        "Ġ",
        "J"
      ],
      [
        "Ġm",
        "ust"
      ],
      [
        "Ġbe",
        "g"
      ],
      [
        "Ġth",
        "ink"
      ],
      [
        "if",
        "f"
      ],
      [
        "f",
        "t"
      ],
      [
        "f",
        "ess"
      ],
      [
        "Ġa",
        "c"
      ],
      [
        "Ġw",
        "ent"
      ],
      [
        "pp",
        "ed"
      ],
      [
        "Ġ",
        "im"
      ],
      [
        "Ġg",
        "ot"
      ],
      [
        "l",
        "ed"
      ],
      [
        "k",
        "ed"
      ],
      [
        "ar",
        "s"
      ],
      [
        "f",
        "ul"
      ],
      [
        "t",
        "ed"
      ],
      [
        "Ġs",
        "ay"
      ],
      [
        "Ġm",
        "ay"
      ],
      [
        "Ġw",
        "or"
      ],
      [
        "Ġo",
        "p"
      ],
      [
        "an",
        "ce"
      ],
      [
        "is",
        "h"
      ],
      [
        "Ġh",
        "ow"
      ],
      [
        "Ġe",
        "nd"
      ],
      [
        "i",
        "z"
      ],
      [
        "Ġb",
        "o"
      ],
      [
        "Ġwh",
        "ile"
      ],
      [
        "ĠThe",
        "n"
      ],
      [
        "Ġex",
        "p"
      ],
      [
        "'",
        "t"
      ],
      [
        "Ġt",
        "urn"
      ],
      [
        "ir",
        "st"
      ],
      [
        "Ġfe",
        "ll"
      ],
      [
        "Ġl",
        "o"
      ],
      [
        "Ġha",
        "s"
      ],
      [
        "ĠW",
        "e"
      ],
      [
        "?",
        "âĢĿ"
      ],
      [
        "en",
        "ed"
      ],
      [
        "al",
        "f"
      ],
      [
        "Ġtw",
        "o"
      ],
      [
        "fess",
        "or"
      ],
      [
        "ĠI",
        "n"
      ],
      [
        "um",
        "mer"
      ],
      [
        "Ġho",
        "bbit"
      ],
      [
        "o",
        "nd"
      ],
      [
        "t",
        "ing"
      ],
      [
        "Ġp",
        "r"
      ],
      [
        "and",
        "alf"
      ],
      [
        "f",
        "f"
      ],
      [
        "re",
        "ad"
      ],
      [
        "om",
        "et"
      ],
      [
        "Ġne",
        "ver"
      ],
      [
        "n",
        "g"
      ],
      [
        "Ġgo",
        "bl"
      ],
      [
        "Ġj",
        "ust"
      ],
      [
        "u",
        "ch"
      ],
      [
        "Ġd",
        "is"
      ],
      [
        "u",
        "e"
      ],
      [
        "ĠG",
        "andalf"
      ],
      [
        "Ġ",
        "("
      ],
      [
        "Ġf",
        "ound"
      ],
      [
        "Ġg",
        "re"
      ],
      [
        "Ġdo",
        "or"
      ],
      [
        "ĠL",
        "ord"
      ],
      [
        "i",
        "ver"
      ],
      [
        "Ġo",
        "ld"
      ],
      [
        "Ġp",
        "e"
      ],
      [
        "ward",
        "s"
      ],
      [
        "Ġg",
        "u"
      ],
      [
        "ro",
        "fessor"
      ],
      [
        "Ġmo",
        "st"
      ],
      [
        "l",
        "ing"
      ],
      [
        "Ġf",
        "irst"
      ],
      [
        "Ġey",
        "es"
      ],
      [
        "T",
        "he"
      ],
      [
        "o",
        "s"
      ],
      [
        "Ġe",
        "ver"
      ],
      [
        "ac",
        "t"
      ],
      [
        "h",
        "ind"
      ],
      [
        "Ġa",
        "d"
      ],
      [
        "Ġbe",
        "l"
      ],
      [
        "Ġsa",
        "w"
      ],
      [
        "Ġsu",
        "ch"
      ],
      [
        "Ġn",
        "ight"
      ],
      [
        "le",
        "e"
      ],
      [
        "ĠP",
        "rofessor"
      ],
      [
        "dd",
        "en"
      ],
      [
        "Ġthe",
        "se"
      ],
      [
        "Ġhe",
        "re"
      ],
      [
        "Ġwe",
        "ll"
      ],
      [
        "Ġh",
        "u"
      ],
      [
        "at",
        "her"
      ],
      [
        "Ġp",
        "ass"
      ],
      [
        "Ġbe",
        "hind"
      ],
      [
        "n",
        "e"
      ],
      [
        "Ġm",
        "uch"
      ],
      [
        "ag",
        "on"
      ],
      [
        "ac",
        "h"
      ],
      [
        "ĠS",
        "ummer"
      ],
      [
        "Ġ",
        "R"
      ],
      [
        "Ġs",
        "pe"
      ],
      [
        "Ġs",
        "omet"
      ],
      [
        "Ġtre",
        "es"
      ],
      [
        "ĠSummer",
        "lee"
      ],
      [
        "am",
        "p"
      ],
      [
        "Ġc",
        "ha"
      ],
      [
        "Ġp",
        "art"
      ],
      [
        "ion",
        "s"
      ],
      [
        "a",
        "red"
      ],
      [
        "l",
        "es"
      ],
      [
        "an",
        "g"
      ],
      [
        "ĠS",
        "o"
      ],
      [
        "v",
        "ing"
      ],
      [
        "Ġd",
        "on"
      ],
      [
        "ag",
        "g"
      ],
      [
        "ĠA",
        "nd"
      ],
      [
        "k",
        "ing"
      ],
      [
        "m",
        "e"
      ],
      [
        "Ġ",
        "ke"
      ],
      [
        "Ġf",
        "ire"
      ],
      [
        "Ġha",
        "r"
      ],
      [
        "Ġe",
        "very"
      ],
      [
        "Ġc",
        "h"
      ],
      [
        "ow",
        "s"
      ],
      [
        "Ġman",
        "y"
      ],
      [
        "an",
        "s"
      ],
      [
        "Ġhe",
        "ard"
      ],
      [
        "Ġwat",
        "er"
      ],
      [
        "!",
        "\""
      ],
      [
        "e",
        "ct"
      ],
      [
        "Ġbe",
        "t"
      ],
      [
        "Ġsee",
        "med"
      ],
      [
        "l",
        "ves"
      ],
      [
        "o",
        "h"
      ],
      [
        "Ġm",
        "ight"
      ],
      [
        "Ġle",
        "ft"
      ],
      [
        "Ġlook",
        "ed"
      ],
      [
        "re",
        "e"
      ],
      [
        "Ġth",
        "ough"
      ],
      [
        "u",
        "ck"
      ],
      [
        "Ġw",
        "ood"
      ],
      [
        "Ġs",
        "hall"
      ],
      [
        "Ġf",
        "ind"
      ],
      [
        "ro",
        "ss"
      ],
      [
        "Ġw",
        "a"
      ],
      [
        "Ġro",
        "ck"
      ],
      [
        "ĠJ",
        "oh"
      ],
      [
        "ĠJoh",
        "n"
      ],
      [
        "Ġf",
        "ore"
      ],
      [
        "Ġam",
        "ong"
      ],
      [
        "u",
        "d"
      ],
      [
        "Ġu",
        "nt"
      ],
      [
        "Ġdr",
        "agon"
      ],
      [
        "Ġgobl",
        "ins"
      ],
      [
        "m",
        "ent"
      ],
      [
        "Ġ",
        "You"
      ],
      [
        "Ġs",
        "ide"
      ],
      [
        "Ġr",
        "ight"
      ],
      [
        "un",
        "g"
      ],
      [
        "a",
        "z"
      ],
      [
        "g",
        "et"
      ],
      [
        "Ġo",
        "wn"
      ],
      [
        "an",
        "c"
      ],
      [
        "Ġso",
        "on"
      ],
      [
        "at",
        "ed"
      ],
      [
        "Ġd",
        "es"
      ],
      [
        "t",
        "e"
      ],
      [
        "Ġc",
        "le"
      ],
      [
        "Ġm",
        "ake"
      ],
      [
        "Ġnot",
        "hing"
      ],
      [
        "ure",
        "s"
      ],
      [
        "er",
        "t"
      ],
      [
        "it",
        "y"
      ],
      [
        "is",
        "e"
      ],
      [
        "bo",
        "ve"
      ],
      [
        "s",
        "ide"
      ],
      [
        "re",
        "am"
      ],
      [
        "an",
        "k"
      ],
      [
        "ow",
        "ed"
      ],
      [
        "l",
        "ess"
      ],
      [
        "x",
        "t"
      ],
      [
        "ĠM",
        "ountain"
      ],
      [
        "e",
        "re"
      ],
      [
        "p",
        "s"
      ],
      [
        "ot",
        "her"
      ],
      [
        "Ġa",
        "bove"
      ],
      [
        "Ġm",
        "ountain"
      ],
      [
        "Ġhim",
        "self"
      ],
      [
        "Ġsu",
        "dden"
      ],
      [
        "ĠM",
        "r"
      ],
      [
        "Ġne",
        "ar"
      ],
      [
        "Ġsomet",
        "hing"
      ],
      [
        "Ġw",
        "o"
      ],
      [
        "Ġc",
        "our"
      ],
      [
        "Ġfr",
        "ie"
      ],
      [
        "Ġfrie",
        "nd"
      ],
      [
        "b",
        "er"
      ],
      [
        "in",
        "t"
      ],
      [
        "Ġh",
        "or"
      ],
      [
        "Ġfe",
        "et"
      ],
      [
        "out",
        "h"
      ],
      [
        "Ġc",
        "ar"
      ],
      [
        "Ġth",
        "ings"
      ],
      [
        "au",
        "g"
      ],
      [
        "Ġop",
        "en"
      ],
      [
        "Ġad",
        "v"
      ],
      [
        "Ġp",
        "er"
      ],
      [
        "Ġy",
        "et"
      ],
      [
        "Ġpl",
        "ace"
      ],
      [
        "p",
        "ed"
      ],
      [
        "Ġc",
        "reat"
      ],
      [
        "Ġm",
        "en"
      ],
      [
        "Ġhe",
        "l"
      ],
      [
        "Ġse",
        "en"
      ],
      [
        "Ġs",
        "k"
      ],
      [
        "Ġb",
        "us"
      ],
      [
        "Ġr",
        "iver"
      ],
      [
        "Ġtre",
        "e"
      ],
      [
        "c",
        "i"
      ],
      [
        "i",
        "gh"
      ],
      [
        "ĠT",
        "hat"
      ],
      [
        "Ġon",
        "ce"
      ],
      [
        "e",
        "ver"
      ],
      [
        "n",
        "ess"
      ],
      [
        "Ġl",
        "ay"
      ],
      [
        "Ġbe",
        "c"
      ],
      [
        "ĠA",
        "s"
      ],
      [
        "ak",
        "ing"
      ],
      [
        "Ġunt",
        "il"
      ],
      [
        "a",
        "w"
      ],
      [
        "or",
        "n"
      ],
      [
        "c",
        "hed"
      ],
      [
        "ĠI",
        "nd"
      ],
      [
        "Ġwith",
        "out"
      ],
      [
        "pe",
        "ct"
      ],
      [
        "Ġhar",
        "d"
      ],
      [
        "g",
        "s"
      ],
      [
        "l",
        "s"
      ],
      [
        "Ġal",
        "ong"
      ],
      [
        "ĠB",
        "e"
      ],
      [
        "Ġbeg",
        "an"
      ],
      [
        "Ġs",
        "il"
      ],
      [
        "Ġc",
        "all"
      ],
      [
        "il",
        "i"
      ],
      [
        "Ġfe",
        "el"
      ],
      [
        "Ġcom",
        "p"
      ],
      [
        "I",
        "t"
      ],
      [
        "a",
        "le"
      ],
      [
        "a",
        "ir"
      ],
      [
        "Ġt",
        "al"
      ],
      [
        "Ġim",
        "p"
      ],
      [
        "Ġd",
        "ist"
      ],
      [
        "Ġp",
        "ut"
      ],
      [
        "Ġde",
        "ep"
      ],
      [
        "m",
        "s"
      ],
      [
        "if",
        "e"
      ],
      [
        "Ġgo",
        "ing"
      ],
      [
        "ig",
        "n"
      ],
      [
        "W",
        "hat"
      ],
      [
        "h",
        "o"
      ],
      [
        "a",
        "b"
      ],
      [
        "Ġc",
        "ried"
      ],
      [
        "ot",
        "h"
      ],
      [
        "Ġsu",
        "pp"
      ],
      [
        "ul",
        "t"
      ],
      [
        "Ġfore",
        "st"
      ],
      [
        "p",
        "er"
      ],
      [
        "Ġ",
        "ed"
      ],
      [
        "ir",
        "d"
      ],
      [
        "he",
        "re"
      ],
      [
        "Ġst",
        "e"
      ],
      [
        "Ġsa",
        "me"
      ],
      [
        "i",
        "ly"
      ],
      [
        "re",
        "ss"
      ],
      [
        "Ġm",
        "or"
      ],
      [
        "Ġd",
        "iff"
      ],
      [
        "Ġsm",
        "all"
      ],
      [
        "Ġp",
        "ath"
      ],
      [
        "Ġbl",
        "ack"
      ],
      [
        "Ġs",
        "at"
      ],
      [
        "i",
        "ble"
      ],
      [
        "w",
        "e"
      ],
      [
        "Ġf",
        "all"
      ],
      [
        "on",
        "s"
      ],
      [
        "ĠB",
        "agg"
      ],
      [
        "au",
        "ght"
      ],
      [
        "Ġday",
        "s"
      ],
      [
        "op",
        "le"
      ],
      [
        "ĠInd",
        "i"
      ],
      [
        "ĠBagg",
        "ins"
      ],
      [
        "e",
        "w"
      ],
      [
        "Ġt",
        "ake"
      ],
      [
        "Ġw",
        "ord"
      ],
      [
        "Ġc",
        "han"
      ],
      [
        "Ġm",
        "om"
      ],
      [
        "on",
        "t"
      ],
      [
        "Ġl",
        "and"
      ],
      [
        "Ġth",
        "ose"
      ],
      [
        "Ġr",
        "un"
      ],
      [
        "Ġne",
        "w"
      ],
      [
        "Ġmom",
        "ent"
      ],
      [
        "l",
        "o"
      ],
      [
        "Ġs",
        "ur"
      ],
      [
        "Ġf",
        "ace"
      ],
      [
        "Ġre",
        "d"
      ],
      [
        "Ġcour",
        "se"
      ],
      [
        "a",
        "il"
      ],
      [
        "c",
        "o"
      ],
      [
        "i",
        "ed"
      ],
      [
        "i",
        "ld"
      ],
      [
        "Ġc",
        "ur"
      ],
      [
        "ĠS",
        "m"
      ],
      [
        "ĠN",
        "ow"
      ],
      [
        "Ġac",
        "ross"
      ],
      [
        "he",
        "n"
      ],
      [
        "Ġa",
        "p"
      ],
      [
        "in",
        "ed"
      ],
      [
        "Ġw",
        "ant"
      ],
      [
        "ou",
        "d"
      ],
      [
        "Ġm",
        "at"
      ],
      [
        "Ġh",
        "igh"
      ],
      [
        "Ġas",
        "ked"
      ],
      [
        "Ġhel",
        "p"
      ],
      [
        "Ġb",
        "re"
      ],
      [
        "ar",
        "y"
      ],
      [
        "ĠA",
        "t"
      ],
      [
        "Ġqu",
        "ite"
      ],
      [
        "Ġtoo",
        "k"
      ],
      [
        "Ġmor",
        "ning"
      ],
      [
        "Ġs",
        "un"
      ],
      [
        "Ġc",
        "amp"
      ],
      [
        "Ġin",
        "d"
      ],
      [
        "Ġe",
        "ach"
      ],
      [
        "Ġre",
        "s"
      ],
      [
        "ĠSm",
        "aug"
      ],
      [
        "l",
        "t"
      ],
      [
        "r",
        "ow"
      ],
      [
        "s",
        "o"
      ],
      [
        "Ġyou",
        "ng"
      ],
      [
        "Ġan",
        "other"
      ],
      [
        "ard",
        "s"
      ],
      [
        "un",
        "n"
      ],
      [
        "oll",
        "um"
      ],
      [
        "Ġwo",
        "nder"
      ],
      [
        "m",
        "en"
      ],
      [
        "Ġo",
        "b"
      ],
      [
        "Ġl",
        "ow"
      ],
      [
        "Ġg",
        "ive"
      ],
      [
        "ri",
        "ble"
      ],
      [
        "ĠG",
        "ollum"
      ],
      [
        "Ġturn",
        "ed"
      ],
      [
        "s",
        "w"
      ],
      [
        "Ġl",
        "ar"
      ],
      [
        "Ġl",
        "ife"
      ],
      [
        "al",
        "in"
      ],
      [
        "Ġen",
        "ough"
      ],
      [
        "Ġsudden",
        "ly"
      ],
      [
        "a",
        "v"
      ],
      [
        "k",
        "s"
      ],
      [
        "t",
        "hing"
      ],
      [
        "Ġt",
        "ell"
      ],
      [
        "Ġa",
        "ir"
      ],
      [
        "Ġw",
        "r"
      ],
      [
        "Ġs",
        "n"
      ],
      [
        "Ġc",
        "ount"
      ],
      [
        "as",
        "ter"
      ],
      [
        "at",
        "t"
      ],
      [
        "Ġan",
        "sw"
      ],
      [
        "ĠW",
        "hat"
      ],
      [
        "Ġgo",
        "ld"
      ],
      [
        "Ġpe",
        "ople"
      ],
      [
        "get",
        "her"
      ],
      [
        "Ġcle",
        "ar"
      ],
      [
        "in",
        "ce"
      ],
      [
        "Ġw",
        "ar"
      ],
      [
        "Ġl",
        "et"
      ],
      [
        "Ġha",
        "lf"
      ],
      [
        "Ġsha",
        "d"
      ],
      [
        "o",
        "st"
      ],
      [
        "Ġs",
        "ound"
      ],
      [
        "ou",
        "b"
      ],
      [
        "Ġf",
        "oll"
      ],
      [
        "as",
        "e"
      ],
      [
        "ĠI",
        "f"
      ],
      [
        "an",
        "ge"
      ],
      [
        "Ġv",
        "o"
      ],
      [
        "Ġcon",
        "t"
      ],
      [
        "Ġlo",
        "st"
      ],
      [
        "read",
        "y"
      ],
      [
        "Ġwa",
        "it"
      ],
      [
        "W",
        "e"
      ],
      [
        "o",
        "or"
      ],
      [
        "Ġ",
        "es"
      ],
      [
        "Ġs",
        "ing"
      ],
      [
        "Ġb",
        "it"
      ],
      [
        "is",
        "hed"
      ],
      [
        "Ġbe",
        "ing"
      ],
      [
        "Ġth",
        "ree"
      ],
      [
        "W",
        "ell"
      ],
      [
        "Ġs",
        "et"
      ],
      [
        "Ġd",
        "ire"
      ],
      [
        "im",
        "b"
      ],
      [
        "ill",
        "ed"
      ],
      [
        "Ġbr",
        "ought"
      ],
      [
        "Ġother",
        "s"
      ],
      [
        "a",
        "ves"
      ],
      [
        "g",
        "g"
      ],
      [
        "Ġw",
        "all"
      ],
      [
        "re",
        "t"
      ],
      [
        "or",
        "m"
      ],
      [
        "ĠTh",
        "is"
      ],
      [
        "Ġgr",
        "ound"
      ],
      [
        "Ġwho",
        "le"
      ],
      [
        "Ġed",
        "ge"
      ],
      [
        "Ġm",
        "ind"
      ],
      [
        "Ġha",
        "ll"
      ],
      [
        "id",
        "d"
      ],
      [
        "Ġe",
        "l"
      ],
      [
        "Ġk",
        "ing"
      ],
      [
        "Ġqu",
        "ick"
      ],
      [
        "way",
        "s"
      ],
      [
        "ĠO",
        "n"
      ],
      [
        "Ġdire",
        "ct"
      ],
      [
        "Ġ",
        "K"
      ],
      [
        "Ġd",
        "one"
      ],
      [
        "ie",
        "f"
      ],
      [
        "au",
        "se"
      ],
      [
        "ort",
        "h"
      ],
      [
        "Ġpo",
        "int"
      ],
      [
        "c",
        "c"
      ],
      [
        "o",
        "ke"
      ],
      [
        "Ġc",
        "he"
      ],
      [
        "en",
        "s"
      ],
      [
        "id",
        "er"
      ],
      [
        "Ġre",
        "t"
      ],
      [
        "Ġre",
        "ally"
      ],
      [
        "Ġsl",
        "ow"
      ],
      [
        "c",
        "l"
      ],
      [
        "e",
        "y"
      ],
      [
        "o",
        "ck"
      ],
      [
        "t",
        "y"
      ],
      [
        "Ġha",
        "pp"
      ],
      [
        "Ġp",
        "on"
      ],
      [
        "Ġg",
        "ave"
      ],
      [
        "se",
        "lves"
      ],
      [
        "k",
        "en"
      ],
      [
        "y",
        "ing"
      ],
      [
        "Ġm",
        "is"
      ],
      [
        "ot",
        "t"
      ],
      [
        "Ġth",
        "ing"
      ],
      [
        "Ġfe",
        "w"
      ],
      [
        "Ġal",
        "so"
      ],
      [
        "Ġstr",
        "ange"
      ],
      [
        "Ġrem",
        "em"
      ],
      [
        "Ġmountain",
        "s"
      ],
      [
        "f",
        "ort"
      ],
      [
        "Ġs",
        "he"
      ],
      [
        "Ġb",
        "ro"
      ],
      [
        "Ġf",
        "ull"
      ],
      [
        "Ġd",
        "oub"
      ],
      [
        "Ġto",
        "wards"
      ],
      [
        "Ġfr",
        "ont"
      ],
      [
        "Ġal",
        "ways"
      ],
      [
        "us",
        "h"
      ],
      [
        "Ġcl",
        "iff"
      ],
      [
        "Ġhand",
        "s"
      ],
      [
        "Ġhu",
        "ge"
      ],
      [
        "c",
        "hes"
      ],
      [
        "Ġt",
        "ill"
      ],
      [
        "Ġw",
        "ind"
      ],
      [
        "Ġs",
        "ort"
      ],
      [
        "re",
        "s"
      ],
      [
        "Ġf",
        "o"
      ],
      [
        "Ġg",
        "one"
      ],
      [
        "Ġr",
        "ing"
      ],
      [
        "ac",
        "es"
      ],
      [
        "Ġre",
        "p"
      ],
      [
        "Ġsu",
        "re"
      ],
      [
        "Ġadv",
        "ent"
      ],
      [
        "Ġap",
        "pe"
      ],
      [
        "Ġs",
        "ince"
      ],
      [
        "nd",
        "red"
      ],
      [
        "Ġb",
        "ur"
      ],
      [
        "it",
        "ion"
      ],
      [
        "as",
        "h"
      ],
      [
        "Ġac",
        "c"
      ],
      [
        "Ġgu",
        "ess"
      ],
      [
        "e",
        "ed"
      ],
      [
        "Ġ",
        "ent"
      ],
      [
        "Ġt",
        "er"
      ],
      [
        "Ġb",
        "ar"
      ],
      [
        "er",
        "ing"
      ],
      [
        "Ġhe",
        "art"
      ],
      [
        "ow",
        "ing"
      ],
      [
        "Ġal",
        "ready"
      ],
      [
        "Ġho",
        "pe"
      ],
      [
        "Ġkn",
        "ew"
      ],
      [
        "Ġgre",
        "en"
      ],
      [
        "Ġbel",
        "ow"
      ],
      [
        "Ġfriend",
        "s"
      ],
      [
        "b",
        "ur"
      ],
      [
        "i",
        "ence"
      ],
      [
        "Ġt",
        "unn"
      ],
      [
        "Ġb",
        "ird"
      ],
      [
        "or",
        "y"
      ],
      [
        "le",
        "ep"
      ],
      [
        "Ġu",
        "se"
      ],
      [
        "Ġst",
        "ood"
      ],
      [
        "Ġst",
        "one"
      ],
      [
        "Ġwh",
        "ite"
      ],
      [
        "Ġse",
        "c"
      ],
      [
        "Ġwor",
        "ld"
      ],
      [
        "Ġexp",
        "l"
      ],
      [
        "Ġhu",
        "ndred"
      ],
      [
        "Ġke",
        "ep"
      ],
      [
        "Ġbet",
        "ter"
      ],
      [
        "a",
        "id"
      ],
      [
        "Ġs",
        "er"
      ],
      [
        "er",
        "y"
      ],
      [
        "Ġl",
        "ake"
      ],
      [
        "an",
        "ger"
      ],
      [
        "ut",
        "e"
      ],
      [
        "ain",
        "ed"
      ],
      [
        "Ġcl",
        "imb"
      ],
      [
        "Ġco",
        "ld"
      ],
      [
        "Ġbet",
        "we"
      ],
      [
        "Ġbetwe",
        "en"
      ],
      [
        "m",
        "an"
      ],
      [
        "s",
        "ed"
      ],
      [
        "Ġb",
        "ig"
      ],
      [
        "ic",
        "al"
      ],
      [
        "il",
        "es"
      ],
      [
        "ĠA",
        "ll"
      ],
      [
        "ch",
        "ing"
      ],
      [
        "Ġne",
        "xt"
      ],
      [
        "Ġpl",
        "ate"
      ],
      [
        "Ġagain",
        "st"
      ],
      [
        "ĠF",
        "or"
      ],
      [
        "f",
        "e"
      ],
      [
        "on",
        "es"
      ],
      [
        "Ġd",
        "anger"
      ],
      [
        "Ġto",
        "gether"
      ],
      [
        "Ġhe",
        "ar"
      ],
      [
        "st",
        "r"
      ],
      [
        "Ġst",
        "art"
      ],
      [
        "us",
        "hed"
      ],
      [
        "bl",
        "ed"
      ],
      [
        "Ġqu",
        "est"
      ],
      [
        "ert",
        "ain"
      ],
      [
        "Ġlar",
        "ge"
      ],
      [
        "Ġa",
        "ct"
      ],
      [
        "Ġw",
        "al"
      ],
      [
        "Ġm",
        "on"
      ],
      [
        "Ġto",
        "r"
      ],
      [
        "Ġfe",
        "lt"
      ],
      [
        "Ġex",
        "ce"
      ],
      [
        "Ġmo",
        "on"
      ],
      [
        "Ġpre",
        "s"
      ],
      [
        "Ġbre",
        "ak"
      ],
      [
        "Ġret",
        "urn"
      ],
      [
        "Ġdoub",
        "t"
      ],
      [
        "Ġtunn",
        "el"
      ],
      [
        "Ġplate",
        "au"
      ],
      [
        "c",
        "ious"
      ],
      [
        "Ġf",
        "ur"
      ],
      [
        "Ġh",
        "ur"
      ],
      [
        "Ġat",
        "t"
      ],
      [
        "if",
        "ic"
      ],
      [
        "Ġmy",
        "self"
      ],
      [
        "Ġsp",
        "r"
      ],
      [
        "Ġj",
        "o"
      ],
      [
        "Ġcom",
        "ing"
      ],
      [
        "d",
        "y"
      ],
      [
        "g",
        "ed"
      ],
      [
        "u",
        "ff"
      ],
      [
        "Ġb",
        "est"
      ],
      [
        "Ġf",
        "act"
      ],
      [
        "Ġc",
        "are"
      ],
      [
        "Ġto",
        "p"
      ],
      [
        "Ġh",
        "um"
      ],
      [
        "Ġg",
        "i"
      ],
      [
        "Ġst",
        "and"
      ],
      [
        "ĠB",
        "alin"
      ],
      [
        "ad",
        "y"
      ],
      [
        "ul",
        "ar"
      ],
      [
        "Ġa",
        "pp"
      ],
      [
        "Ġw",
        "iz"
      ],
      [
        "Ġs",
        "ign"
      ],
      [
        "ha",
        "ps"
      ],
      [
        "ou",
        "se"
      ],
      [
        "Ġn",
        "or"
      ],
      [
        "Ġr",
        "a"
      ],
      [
        "um",
        "p"
      ],
      [
        "Ġle",
        "ast"
      ],
      [
        "Ġex",
        "pect"
      ],
      [
        "itt",
        "ing"
      ],
      [
        "Ġstr",
        "ong"
      ],
      [
        "ĠIndi",
        "ans"
      ],
      [
        "B",
        "ut"
      ],
      [
        "h",
        "y"
      ],
      [
        "it",
        "her"
      ],
      [
        "Ġp",
        "le"
      ],
      [
        "Ġn",
        "at"
      ],
      [
        "om",
        "bur"
      ],
      [
        "ic",
        "t"
      ],
      [
        "Ġst",
        "ream"
      ],
      [
        "et",
        "s"
      ],
      [
        "ĠH",
        "is"
      ],
      [
        "Ġk",
        "ind"
      ],
      [
        "Ġcon",
        "s"
      ],
      [
        "Ġcomp",
        "an"
      ],
      [
        "n",
        "ot"
      ],
      [
        "or",
        "i"
      ],
      [
        "Ġe",
        "v"
      ],
      [
        "ĠB",
        "ombur"
      ],
      [
        "Ġme",
        "an"
      ],
      [
        "Ġne",
        "ed"
      ],
      [
        "Ġus",
        "ed"
      ],
      [
        "Ġpo",
        "ss"
      ],
      [
        "Ġhow",
        "ever"
      ],
      [
        "Ġpass",
        "ed"
      ],
      [
        "Ġvo",
        "ice"
      ],
      [
        "a",
        "ut"
      ],
      [
        "i",
        "er"
      ],
      [
        "i",
        "et"
      ],
      [
        "l",
        "ight"
      ],
      [
        "w",
        "ood"
      ],
      [
        "y",
        "ond"
      ],
      [
        "Ġw",
        "ide"
      ],
      [
        "Ġc",
        "aught"
      ],
      [
        "Ġc",
        "ertain"
      ],
      [
        "it",
        "s"
      ],
      [
        "Ġfor",
        "ward"
      ],
      [
        "ĠW",
        "hen"
      ],
      [
        "Ġlook",
        "ing"
      ],
      [
        "Ġhor",
        "rible"
      ],
      [
        "Ġcreat",
        "ures"
      ],
      [
        "Ġmat",
        "ter"
      ],
      [
        "Ġes",
        "c"
      ],
      [
        "m",
        "ost"
      ],
      [
        "o",
        "d"
      ],
      [
        "Ġs",
        "ir"
      ],
      [
        "re",
        "w"
      ],
      [
        "Ġto",
        "wn"
      ],
      [
        "Ġl",
        "ess"
      ],
      [
        "Ġin",
        "side"
      ],
      [
        "ent",
        "ly"
      ],
      [
        "ĠS",
        "t"
      ],
      [
        "ĠS",
        "outh"
      ],
      [
        "Ġj",
        "our"
      ],
      [
        "Ġsw",
        "ord"
      ],
      [
        "g",
        "r"
      ],
      [
        "i",
        "p"
      ],
      [
        "p",
        "r"
      ],
      [
        "in",
        "ess"
      ],
      [
        "Ġf",
        "our"
      ],
      [
        "en",
        "e"
      ],
      [
        "ve",
        "red"
      ],
      [
        "Ġde",
        "ad"
      ],
      [
        "ĠN",
        "o"
      ],
      [
        "Ġgre",
        "w"
      ],
      [
        "Ġwiz",
        "ard"
      ],
      [
        "n",
        "ed"
      ],
      [
        "Ġa",
        "w"
      ],
      [
        "Ġf",
        "ood"
      ],
      [
        "Ġc",
        "re"
      ],
      [
        "ll",
        "s"
      ],
      [
        "Ġto",
        "ld"
      ],
      [
        "Ġp",
        "ers"
      ],
      [
        "Ġe",
        "at"
      ],
      [
        "Ġy",
        "ell"
      ],
      [
        "ir",
        "c"
      ],
      [
        "Ġan",
        "g"
      ],
      [
        "ĠS",
        "ome"
      ],
      [
        "Ġsh",
        "out"
      ],
      [
        "Ġfe",
        "ar"
      ],
      [
        "Ġany",
        "thing"
      ],
      [
        "Ġbel",
        "ie"
      ],
      [
        "Ġwood",
        "s"
      ],
      [
        "Ġhard",
        "ly"
      ],
      [
        "ĠBe",
        "orn"
      ],
      [
        "Ġdirect",
        "ion"
      ],
      [
        "Ġpon",
        "ies"
      ],
      [
        "i",
        "v"
      ],
      [
        "u",
        "ally"
      ],
      [
        "Ġo",
        "cc"
      ],
      [
        "is",
        "ed"
      ],
      [
        "Ġbe",
        "yond"
      ],
      [
        "Ġe",
        "lves"
      ],
      [
        "ot",
        "s"
      ],
      [
        "Ġas",
        "k"
      ],
      [
        "all",
        "ey"
      ],
      [
        "ĠR",
        "o"
      ],
      [
        "anc",
        "hes"
      ],
      [
        "Ġcreat",
        "ure"
      ],
      [
        "Ġbec",
        "ause"
      ],
      [
        "Ġslow",
        "ly"
      ],
      [
        "j",
        "ect"
      ],
      [
        "Ġb",
        "ank"
      ],
      [
        "is",
        "on"
      ],
      [
        "or",
        "s"
      ],
      [
        "Ġe",
        "m"
      ],
      [
        "Ġe",
        "ag"
      ],
      [
        "Ġth",
        "ick"
      ],
      [
        "im",
        "al"
      ],
      [
        "oo",
        "l"
      ],
      [
        "Ġan",
        "imal"
      ],
      [
        "ĠA",
        "fter"
      ],
      [
        "ri",
        "b"
      ],
      [
        "Ġbr",
        "anches"
      ],
      [
        "Ġmo",
        "ve"
      ],
      [
        "Ġget",
        "ting"
      ],
      [
        "Ġunder",
        "st"
      ],
      [
        "ull",
        "y"
      ],
      [
        "Ġbo",
        "at"
      ],
      [
        "ne",
        "y"
      ],
      [
        "Ġs",
        "ong"
      ],
      [
        "it",
        "ed"
      ],
      [
        "Ġm",
        "ar"
      ],
      [
        "Ġm",
        "iles"
      ],
      [
        "Ġn",
        "ar"
      ],
      [
        "Ġy",
        "e"
      ],
      [
        "Ġr",
        "if"
      ],
      [
        "Ġr",
        "ather"
      ],
      [
        "Ġst",
        "o"
      ],
      [
        "ac",
        "hed"
      ],
      [
        "Ġv",
        "alley"
      ],
      [
        "ĠF",
        "r"
      ],
      [
        "iz",
        "e"
      ],
      [
        "Ġcall",
        "ed"
      ],
      [
        "Ġjour",
        "ney"
      ],
      [
        "l",
        "i"
      ],
      [
        "Ġs",
        "it"
      ],
      [
        "Ġs",
        "itting"
      ],
      [
        "Ġf",
        "air"
      ],
      [
        "Ġc",
        "irc"
      ],
      [
        "en",
        "se"
      ],
      [
        "ic",
        "ult"
      ],
      [
        "Ġre",
        "al"
      ],
      [
        "Ġne",
        "are"
      ],
      [
        "ak",
        "en"
      ],
      [
        "Ġsc",
        "r"
      ],
      [
        "Ġsupp",
        "ose"
      ],
      [
        "Ġdiff",
        "icult"
      ],
      [
        "Ġcount",
        "ry"
      ],
      [
        "Ġremem",
        "ber"
      ],
      [
        "i",
        "x"
      ],
      [
        "Ġ",
        "ide"
      ],
      [
        "Ġa",
        "pe"
      ],
      [
        "Ġb",
        "oth"
      ],
      [
        "Ġn",
        "ame"
      ],
      [
        "Ġr",
        "u"
      ],
      [
        "ĠL",
        "ake"
      ],
      [
        "Ġqu",
        "iet"
      ],
      [
        "ĠN",
        "ot"
      ],
      [
        "ĠF",
        "ili"
      ],
      [
        "Ġind",
        "eed"
      ],
      [
        "Ġbar",
        "re"
      ],
      [
        "c",
        "es"
      ],
      [
        "Ġ",
        "Y"
      ],
      [
        "Ġw",
        "ild"
      ],
      [
        "Ġb",
        "u"
      ],
      [
        "Ġl",
        "oud"
      ],
      [
        "as",
        "ure"
      ],
      [
        "Ġin",
        "st"
      ],
      [
        "at",
        "er"
      ],
      [
        "Ġbe",
        "ard"
      ],
      [
        "ent",
        "s"
      ],
      [
        "Ġho",
        "ld"
      ],
      [
        "Ġpo",
        "ck"
      ],
      [
        "ick",
        "ed"
      ],
      [
        "Ġbeg",
        "in"
      ],
      [
        "Ġbus",
        "iness"
      ],
      [
        "Ġtal",
        "k"
      ],
      [
        "A",
        "nd"
      ],
      [
        "f",
        "ully"
      ],
      [
        "i",
        "ves"
      ],
      [
        "p",
        "le"
      ],
      [
        "Ġs",
        "ent"
      ],
      [
        "Ġs",
        "qu"
      ],
      [
        "Ġl",
        "ed"
      ],
      [
        "Ġl",
        "uck"
      ],
      [
        "Ġr",
        "is"
      ],
      [
        "Ġr",
        "an"
      ],
      [
        "Ġsa",
        "fe"
      ],
      [
        "Ġsh",
        "ot"
      ],
      [
        "Ġag",
        "o"
      ],
      [
        "Ġro",
        "ll"
      ],
      [
        "ap",
        "ed"
      ],
      [
        "Ġop",
        "ened"
      ],
      [
        "Ġbelie",
        "ve"
      ],
      [
        "N",
        "o"
      ],
      [
        "d",
        "ay"
      ],
      [
        "w",
        "h"
      ],
      [
        "Ġt",
        "e"
      ],
      [
        "Ġs",
        "leep"
      ],
      [
        "Ġm",
        "ark"
      ],
      [
        "Ġd",
        "ream"
      ],
      [
        "ar",
        "ing"
      ],
      [
        "Ġh",
        "our"
      ],
      [
        "Ġh",
        "ung"
      ],
      [
        "Ġe",
        "as"
      ],
      [
        "Ġe",
        "ar"
      ],
      [
        "Ġre",
        "f"
      ],
      [
        "ag",
        "ed"
      ],
      [
        "Ġle",
        "gs"
      ],
      [
        "Ġdo",
        "es"
      ],
      [
        "pp",
        "ing"
      ],
      [
        "Ġal",
        "most"
      ],
      [
        "Ġab",
        "s"
      ],
      [
        "Ġfl",
        "oor"
      ],
      [
        "Ġfell",
        "ow"
      ],
      [
        "Ġnear",
        "ly"
      ],
      [
        "Ġdist",
        "ance"
      ],
      [
        "ab",
        "ly"
      ],
      [
        "Ġdiff",
        "ere"
      ],
      [
        "'",
        "ll"
      ],
      [
        "a",
        "wn"
      ],
      [
        "i",
        "ent"
      ],
      [
        "Ġ",
        "'"
      ],
      [
        "Ġs",
        "ight"
      ],
      [
        "Ġb",
        "es"
      ],
      [
        "Ġf",
        "ast"
      ],
      [
        "Ġf",
        "illed"
      ],
      [
        "Ġm",
        "ag"
      ],
      [
        "Ġd",
        "ro"
      ],
      [
        "Ġh",
        "ouse"
      ],
      [
        "id",
        "es"
      ],
      [
        "ĠT",
        "o"
      ],
      [
        "il",
        "ed"
      ],
      [
        "ĠA",
        "mer"
      ],
      [
        "Ġwhe",
        "ther"
      ],
      [
        "Ġex",
        "c"
      ],
      [
        "Ġey",
        "e"
      ],
      [
        "Ġfeel",
        "ing"
      ],
      [
        "ĠAmer",
        "ic"
      ],
      [
        "i",
        "pped"
      ],
      [
        "n",
        "er"
      ],
      [
        "r",
        "or"
      ],
      [
        "w",
        "here"
      ],
      [
        "Ġ",
        "U"
      ],
      [
        "Ġt",
        "all"
      ],
      [
        "in",
        "ing"
      ],
      [
        "Ġb",
        "ene"
      ],
      [
        "Ġh",
        "ome"
      ],
      [
        "Ġh",
        "un"
      ],
      [
        "Ġin",
        "ter"
      ],
      [
        "Ġhe",
        "av"
      ],
      [
        "Ġas",
        "s"
      ],
      [
        "Ġfr",
        "ight"
      ],
      [
        "Ġsh",
        "ort"
      ],
      [
        "Ġout",
        "side"
      ],
      [
        "Ġor",
        "d"
      ],
      [
        "Ġle",
        "ad"
      ],
      [
        "Ġle",
        "ave"
      ],
      [
        "Ġlong",
        "er"
      ],
      [
        "Ġcom",
        "m"
      ],
      [
        "Ġpre",
        "cious"
      ],
      [
        "Ġrem",
        "ark"
      ],
      [
        "Ġim",
        "ag"
      ],
      [
        "Ġword",
        "s"
      ],
      [
        "Ġel",
        "se"
      ],
      [
        "Ġfur",
        "ther"
      ],
      [
        "Ġpers",
        "on"
      ],
      [
        "f",
        "ast"
      ],
      [
        "l",
        "and"
      ],
      [
        "p",
        "l"
      ],
      [
        "p",
        "ing"
      ],
      [
        "u",
        "red"
      ],
      [
        "Ġw",
        "and"
      ],
      [
        "Ġl",
        "ist"
      ],
      [
        "Ġl",
        "ine"
      ],
      [
        "as",
        "on"
      ],
      [
        "Ġhe",
        "r"
      ],
      [
        "Ġbe",
        "ast"
      ],
      [
        "Ġst",
        "ones"
      ],
      [
        "Ġre",
        "st"
      ],
      [
        "Ġthem",
        "selves"
      ],
      [
        "Ġli",
        "ved"
      ],
      [
        "Ġal",
        "one"
      ],
      [
        "Ġcl",
        "ose"
      ],
      [
        "Ġdwar",
        "f"
      ],
      [
        "Ġcha",
        "r"
      ],
      [
        "xt",
        "on"
      ],
      [
        "ere",
        "st"
      ],
      [
        "Ġchan",
        "ce"
      ],
      [
        "Ġland",
        "s"
      ],
      [
        "Ġansw",
        "er"
      ],
      [
        "ĠRo",
        "xton"
      ],
      [
        "Ġide",
        "a"
      ],
      [
        "c",
        "ed"
      ],
      [
        "i",
        "red"
      ],
      [
        "Ġt",
        "ro"
      ],
      [
        "er",
        "n"
      ],
      [
        "Ġy",
        "es"
      ],
      [
        "Ġth",
        "in"
      ],
      [
        "Ġwh",
        "y"
      ],
      [
        "Ġwh",
        "is"
      ],
      [
        "Ġfor",
        "g"
      ],
      [
        "ĠW",
        "h"
      ],
      [
        "Ġpo",
        "or"
      ],
      [
        "Ġbl",
        "ue"
      ],
      [
        "ation",
        "s"
      ],
      [
        "Ġar",
        "ms"
      ],
      [
        "Ġen",
        "orm"
      ],
      [
        "Ġwor",
        "k"
      ],
      [
        "iz",
        "ed"
      ],
      [
        "Ġrock",
        "s"
      ],
      [
        "Ġopen",
        "ing"
      ],
      [
        "Ġbreak",
        "fast"
      ],
      [
        "Ġunderst",
        "and"
      ],
      [
        "Ġenorm",
        "ous"
      ],
      [
        ")",
        ","
      ],
      [
        "T",
        "hat"
      ],
      [
        "a",
        "pped"
      ],
      [
        "b",
        "r"
      ],
      [
        "r",
        "u"
      ],
      [
        "t",
        "o"
      ],
      [
        "t",
        "he"
      ],
      [
        "nd",
        "ed"
      ],
      [
        "Ġf",
        "ol"
      ],
      [
        "Ġc",
        "ross"
      ],
      [
        "Ġd",
        "read"
      ],
      [
        "Ġg",
        "at"
      ],
      [
        "ore",
        "d"
      ],
      [
        "Ġno",
        "ise"
      ],
      [
        "ĠG",
        "o"
      ],
      [
        "Ġint",
        "erest"
      ],
      [
        "Ġsp",
        "oke"
      ],
      [
        "Ġbr",
        "ing"
      ],
      [
        "bl",
        "ing"
      ],
      [
        "Ġar",
        "m"
      ],
      [
        "Ġeven",
        "ing"
      ],
      [
        "Ġdis",
        "c"
      ],
      [
        "os",
        "ed"
      ],
      [
        "Ġcha",
        "ir"
      ],
      [
        "Ġke",
        "pt"
      ],
      [
        "Ġch",
        "ief"
      ],
      [
        "Ġsto",
        "pped"
      ],
      [
        "Ġbene",
        "ath"
      ],
      [
        "g",
        "l"
      ],
      [
        "s",
        "er"
      ],
      [
        "s",
        "ing"
      ],
      [
        "Ġt",
        "aken"
      ],
      [
        "Ġa",
        "ble"
      ],
      [
        "in",
        "ted"
      ],
      [
        "Ġw",
        "on"
      ],
      [
        "Ġb",
        "ad"
      ],
      [
        "Ġm",
        "in"
      ],
      [
        "Ġm",
        "et"
      ],
      [
        "Ġm",
        "aking"
      ],
      [
        "en",
        "g"
      ],
      [
        "Ġh",
        "ill"
      ],
      [
        "at",
        "ing"
      ],
      [
        "Ġbe",
        "aut"
      ],
      [
        "id",
        "ge"
      ],
      [
        "id",
        "ers"
      ],
      [
        "ĠB",
        "ard"
      ],
      [
        "ain",
        "t"
      ],
      [
        "Ġsp",
        "iders"
      ],
      [
        "ie",
        "w"
      ],
      [
        "ie",
        "ld"
      ],
      [
        "Ġcan",
        "not"
      ],
      [
        "Ġgr",
        "ass"
      ],
      [
        "ĠE",
        "l"
      ],
      [
        "Ġdark",
        "ness"
      ],
      [
        "Ġcr",
        "ack"
      ],
      [
        "Ġcar",
        "ried"
      ],
      [
        "Ġsur",
        "pr"
      ],
      [
        "Ġshad",
        "ows"
      ],
      [
        "Ġfo",
        "ot"
      ],
      [
        "c",
        "om"
      ],
      [
        "o",
        "pe"
      ],
      [
        "he",
        "red"
      ],
      [
        "Ġc",
        "at"
      ],
      [
        "Ġc",
        "ry"
      ],
      [
        "as",
        "ion"
      ],
      [
        "Ġp",
        "at"
      ],
      [
        "Ġn",
        "one"
      ],
      [
        "Ġme",
        "et"
      ],
      [
        "ĠM",
        "al"
      ],
      [
        "Ġro",
        "ad"
      ],
      [
        "Ġtr",
        "ou"
      ],
      [
        "ap",
        "pe"
      ],
      [
        "Ġtre",
        "asure"
      ],
      [
        "Ġhead",
        "s"
      ],
      [
        "Ġdis",
        "co"
      ],
      [
        "Ġspe",
        "ak"
      ],
      [
        "Ġcar",
        "ry"
      ],
      [
        "Ġang",
        "ry"
      ],
      [
        "Ġye",
        "ars"
      ],
      [
        "t",
        "r"
      ],
      [
        "t",
        "hat"
      ],
      [
        "Ġw",
        "ish"
      ],
      [
        "nd",
        "ing"
      ],
      [
        "Ġf",
        "ly"
      ],
      [
        "Ġc",
        "ut"
      ],
      [
        "Ġc",
        "ol"
      ],
      [
        "Ġm",
        "outh"
      ],
      [
        "as",
        "hed"
      ],
      [
        "Ġha",
        "ir"
      ],
      [
        "Ġhe",
        "ld"
      ],
      [
        "id",
        "ent"
      ],
      [
        "ore",
        "s"
      ],
      [
        "if",
        "t"
      ],
      [
        "if",
        "ul"
      ],
      [
        "ĠW",
        "ith"
      ],
      [
        "Ġsp",
        "l"
      ],
      [
        "Ġv",
        "is"
      ],
      [
        "Ġtr",
        "ue"
      ],
      [
        "Ġper",
        "haps"
      ],
      [
        "Ġser",
        "v"
      ],
      [
        "Ġquest",
        "ion"
      ],
      [
        "ĠFr",
        "om"
      ],
      [
        "H",
        "e"
      ],
      [
        "a",
        "pe"
      ],
      [
        "m",
        "it"
      ],
      [
        "Ġ",
        "Z"
      ],
      [
        "Ġc",
        "ent"
      ],
      [
        "Ġc",
        "ap"
      ],
      [
        "Ġc",
        "aves"
      ],
      [
        "Ġm",
        "er"
      ],
      [
        "Ġp",
        "in"
      ],
      [
        "ut",
        "t"
      ],
      [
        "ve",
        "l"
      ],
      [
        "Ġon",
        "es"
      ],
      [
        "im",
        "p"
      ],
      [
        "ver",
        "al"
      ],
      [
        "ĠB",
        "y"
      ],
      [
        "ent",
        "y"
      ],
      [
        "Ġre",
        "ached"
      ],
      [
        "Ġse",
        "veral"
      ],
      [
        "ĠS",
        "u"
      ],
      [
        "Ġde",
        "c"
      ],
      [
        "us",
        "ed"
      ],
      [
        "Ġcom",
        "fort"
      ],
      [
        "ĠO",
        "ne"
      ],
      [
        "Ġsha",
        "r"
      ],
      [
        "Ġgu",
        "ard"
      ],
      [
        "The",
        "re"
      ],
      [
        "ĠSo",
        "on"
      ],
      [
        "te",
        "en"
      ],
      [
        "Ġbus",
        "hes"
      ],
      [
        "ci",
        "ally"
      ],
      [
        "Ġwonder",
        "ful"
      ],
      [
        "att",
        "le"
      ],
      [
        "idd",
        "le"
      ],
      [
        "ĠK",
        "ili"
      ],
      [
        "Ġhum",
        "an"
      ],
      [
        "ĠMal",
        "one"
      ],
      [
        "a",
        "ld"
      ],
      [
        "i",
        "am"
      ],
      [
        "n",
        "o"
      ],
      [
        "o",
        "es"
      ],
      [
        "Ġa",
        "dd"
      ],
      [
        "re",
        "ed"
      ],
      [
        "Ġb",
        "ott"
      ],
      [
        "Ġc",
        "ase"
      ],
      [
        "Ġha",
        "t"
      ],
      [
        "Ġp",
        "ur"
      ],
      [
        "ow",
        "er"
      ],
      [
        "Ġe",
        "ff"
      ],
      [
        "Ġst",
        "ep"
      ],
      [
        "Ġwith",
        "in"
      ],
      [
        "ĠThe",
        "ir"
      ],
      [
        "Ġre",
        "ason"
      ],
      [
        "ain",
        "s"
      ],
      [
        "ag",
        "es"
      ],
      [
        "ĠH",
        "ow"
      ],
      [
        "ĠM",
        "y"
      ],
      [
        "ĠM",
        "aster"
      ],
      [
        "Ġro",
        "om"
      ],
      [
        "Ġro",
        "pe"
      ],
      [
        "ate",
        "ly"
      ],
      [
        "ĠE",
        "ven"
      ],
      [
        "Ġgl",
        "o"
      ],
      [
        "Ġgobl",
        "in"
      ],
      [
        "Ġsk",
        "y"
      ],
      [
        "Ġansw",
        "ered"
      ],
      [
        "Ġfoll",
        "owed"
      ],
      [
        "Ġadvent",
        "ures"
      ],
      [
        "Ġbird",
        "s"
      ],
      [
        "Ġple",
        "as"
      ],
      [
        "Ġcons",
        "ider"
      ],
      [
        "Ġcertain",
        "ly"
      ],
      [
        "Ġshout",
        "ed"
      ],
      [
        "Ġdiffere",
        "nt"
      ],
      [
        "Ġheav",
        "y"
      ],
      [
        "V",
        "ery"
      ],
      [
        "e",
        "k"
      ],
      [
        "u",
        "p"
      ],
      [
        "u",
        "al"
      ],
      [
        "he",
        "ad"
      ],
      [
        "Ġb",
        "reat"
      ],
      [
        "Ġf",
        "ig"
      ],
      [
        "Ġf",
        "ive"
      ],
      [
        "en",
        "er"
      ],
      [
        "Ġd",
        "et"
      ],
      [
        "Ġd",
        "are"
      ],
      [
        "Ġin",
        "c"
      ],
      [
        "Ġin",
        "s"
      ],
      [
        "at",
        "ive"
      ],
      [
        "im",
        "es"
      ],
      [
        "Ġfor",
        "m"
      ],
      [
        "am",
        "es"
      ],
      [
        "bo",
        "dy"
      ],
      [
        "um",
        "ped"
      ],
      [
        "um",
        "bled"
      ],
      [
        "Ġde",
        "v"
      ],
      [
        "Ġde",
        "al"
      ],
      [
        "Ġsee",
        "m"
      ],
      [
        "Ġtr",
        "y"
      ],
      [
        "Ġgr",
        "ow"
      ],
      [
        "Ġdr",
        "ink"
      ],
      [
        "ol",
        "ves"
      ],
      [
        "ĠD",
        "ori"
      ],
      [
        "Ġwat",
        "ch"
      ],
      [
        "Ġdes",
        "c"
      ],
      [
        "Ġbec",
        "ame"
      ],
      [
        "Ġrif",
        "le"
      ],
      [
        "li",
        "ke"
      ],
      [
        "Ġbes",
        "ide"
      ],
      [
        "Ġbeaut",
        "iful"
      ],
      [
        "Ġshar",
        "p"
      ],
      [
        "b",
        "ut"
      ],
      [
        "c",
        "ha"
      ],
      [
        "p",
        "es"
      ],
      [
        "t",
        "en"
      ],
      [
        "Ġf",
        "at"
      ],
      [
        "Ġf",
        "ather"
      ],
      [
        "Ġm",
        "ap"
      ],
      [
        "Ġof",
        "ten"
      ],
      [
        "Ġd",
        "ri"
      ],
      [
        "Ġl",
        "au"
      ],
      [
        "Ġin",
        "v"
      ],
      [
        "Ġg",
        "ate"
      ],
      [
        "Ġbe",
        "ar"
      ],
      [
        "Ġe",
        "le"
      ],
      [
        "Ġit",
        "self"
      ],
      [
        "il",
        "ing"
      ],
      [
        "Ġme",
        "m"
      ],
      [
        "ĠW",
        "ill"
      ],
      [
        "ast",
        "y"
      ],
      [
        "Ġsu",
        "b"
      ],
      [
        "Ġle",
        "ar"
      ],
      [
        "Ġal",
        "ive"
      ],
      [
        "art",
        "h"
      ],
      [
        "ant",
        "s"
      ],
      [
        "Ġsm",
        "o"
      ],
      [
        "Ġco",
        "ll"
      ],
      [
        "ĠD",
        "ale"
      ],
      [
        "Ġexp",
        "er"
      ],
      [
        "dden",
        "ly"
      ],
      [
        "Ġsil",
        "ver"
      ],
      [
        "ĠIndi",
        "an"
      ],
      [
        "Ġnew",
        "s"
      ],
      [
        "Ġadvent",
        "ure"
      ],
      [
        "ĠSu",
        "ddenly"
      ],
      [
        "Ġlau",
        "gh"
      ],
      [
        ")",
        "."
      ],
      [
        "T",
        "h"
      ],
      [
        "a",
        "ver"
      ],
      [
        "o",
        "ss"
      ],
      [
        "Ġt",
        "able"
      ],
      [
        "Ġw",
        "olves"
      ],
      [
        "Ġf",
        "am"
      ],
      [
        "Ġf",
        "if"
      ],
      [
        "Ġf",
        "ier"
      ],
      [
        "Ġc",
        "ave"
      ],
      [
        "Ġre",
        "ady"
      ],
      [
        "Ġme",
        "ant"
      ],
      [
        "Ġne",
        "ck"
      ],
      [
        "ri",
        "es"
      ],
      [
        "Ġbr",
        "ight"
      ],
      [
        "Ġam",
        "id"
      ],
      [
        "el",
        "s"
      ],
      [
        "Ġdr",
        "aw"
      ],
      [
        "Ġcon",
        "f"
      ],
      [
        "Ġpr",
        "ison"
      ],
      [
        "Ġsil",
        "ence"
      ],
      [
        "Ġrun",
        "ning"
      ],
      [
        "Ġcont",
        "in"
      ],
      [
        "Ġsec",
        "ret"
      ],
      [
        "Ġnar",
        "row"
      ],
      [
        "Ġbegin",
        "ning"
      ],
      [
        "a",
        "ight"
      ],
      [
        "b",
        "ered"
      ],
      [
        "g",
        "es"
      ],
      [
        "u",
        "b"
      ],
      [
        "y",
        "ed"
      ],
      [
        "Ġt",
        "ried"
      ],
      [
        "Ġa",
        "f"
      ],
      [
        "Ġf",
        "in"
      ],
      [
        "Ġf",
        "ight"
      ],
      [
        "Ġl",
        "ate"
      ],
      [
        "Ġha",
        "ng"
      ],
      [
        "Ġg",
        "le"
      ],
      [
        "le",
        "t"
      ],
      [
        "ut",
        "h"
      ],
      [
        "Ġe",
        "arth"
      ],
      [
        "ic",
        "es"
      ],
      [
        "ĠâĢ",
        "ĺ"
      ],
      [
        "Ġst",
        "re"
      ],
      [
        "Ġre",
        "g"
      ],
      [
        "Ġbr",
        "idge"
      ],
      [
        "Ġro",
        "se"
      ],
      [
        "ick",
        "ing"
      ],
      [
        "Ġsm",
        "ell"
      ],
      [
        "Ġsc",
        "ient"
      ],
      [
        "Ġdis",
        "appe"
      ],
      [
        "Ġwait",
        "ing"
      ],
      [
        "Ġbro",
        "ken"
      ],
      [
        "Ġappe",
        "ar"
      ],
      [
        "Ġbur",
        "gl"
      ],
      [
        "Ġdanger",
        "ous"
      ],
      [
        "Ġocc",
        "asion"
      ],
      [
        "Ġdread",
        "ful"
      ],
      [
        "ĠGo",
        "bl"
      ],
      [
        "Ġgle",
        "am"
      ],
      [
        "Ġscient",
        "ific"
      ],
      [
        "'",
        "ve"
      ],
      [
        "i",
        "b"
      ],
      [
        "u",
        "ed"
      ],
      [
        "w",
        "hat"
      ],
      [
        "Ġw",
        "ond"
      ],
      [
        "Ġb",
        "ow"
      ],
      [
        "en",
        "ing"
      ],
      [
        "Ġh",
        "ood"
      ],
      [
        "Ġha",
        "ving"
      ],
      [
        "Ġin",
        "cl"
      ],
      [
        "Ġp",
        "al"
      ],
      [
        "Ġp",
        "ack"
      ],
      [
        "Ġn",
        "um"
      ],
      [
        "Ġn",
        "asty"
      ],
      [
        "an",
        "ch"
      ],
      [
        "le",
        "w"
      ],
      [
        "Ġe",
        "ither"
      ],
      [
        "im",
        "e"
      ],
      [
        "ĠThe",
        "se"
      ],
      [
        "ent",
        "ion"
      ],
      [
        "ter",
        "s"
      ],
      [
        "Ġthere",
        "fore"
      ],
      [
        "Ġle",
        "aves"
      ],
      [
        "Ġdo",
        "ing"
      ],
      [
        "Ġde",
        "ar"
      ],
      [
        "Ġtr",
        "un"
      ],
      [
        "Ġtim",
        "es"
      ],
      [
        "Ġsl",
        "ipped"
      ],
      [
        "Ġar",
        "g"
      ],
      [
        "Ġsil",
        "ent"
      ],
      [
        "Ġfall",
        "en"
      ],
      [
        "Ġob",
        "ser"
      ],
      [
        "att",
        "ered"
      ],
      [
        "Ġshad",
        "ow"
      ],
      [
        "ott",
        "en"
      ],
      [
        "Ġappe",
        "ared"
      ],
      [
        "Ġclimb",
        "ed"
      ],
      [
        "Ġstart",
        "ed"
      ],
      [
        "Ġgi",
        "ven"
      ],
      [
        "Ġfol",
        "k"
      ],
      [
        "Ġtrou",
        "ble"
      ],
      [
        "ĠWill",
        "iam"
      ],
      [
        "N",
        "ow"
      ],
      [
        "Q",
        "u"
      ],
      [
        "a",
        "im"
      ],
      [
        "a",
        "bb"
      ],
      [
        "k",
        "n"
      ],
      [
        "r",
        "on"
      ],
      [
        "u",
        "gg"
      ],
      [
        "Ġt",
        "ou"
      ],
      [
        "Ġs",
        "on"
      ],
      [
        "Ġc",
        "ou"
      ],
      [
        "Ġm",
        "ess"
      ],
      [
        "Ġd",
        "im"
      ],
      [
        "Ġd",
        "rew"
      ],
      [
        "Ġl",
        "ad"
      ],
      [
        "Ġp",
        "u"
      ],
      [
        "Ġp",
        "ast"
      ],
      [
        "Ġp",
        "ale"
      ],
      [
        "Ġg",
        "ro"
      ],
      [
        "Ġg",
        "az"
      ],
      [
        "ut",
        "es"
      ],
      [
        "st",
        "er"
      ],
      [
        "oo",
        "f"
      ],
      [
        "ĠB",
        "ert"
      ],
      [
        "Ġre",
        "c"
      ],
      [
        "Ġre",
        "ad"
      ],
      [
        "ĠA",
        "l"
      ],
      [
        "Ġour",
        "selves"
      ],
      [
        "Ġv",
        "iew"
      ],
      [
        "Ġho",
        "le"
      ],
      [
        "Ġstr",
        "aight"
      ],
      [
        "Ġco",
        "nd"
      ],
      [
        "Ġgl",
        "ad"
      ],
      [
        "ment",
        "s"
      ],
      [
        "Ġgold",
        "en"
      ],
      [
        "Ġsing",
        "le"
      ],
      [
        "Ġter",
        "rible"
      ],
      [
        "Ġsec",
        "ond"
      ],
      [
        "Ġstand",
        "ing"
      ],
      [
        "Ġmag",
        "ic"
      ],
      [
        "Ġfier",
        "ce"
      ],
      [
        "D",
        "on"
      ],
      [
        "a",
        "h"
      ],
      [
        "e",
        "x"
      ],
      [
        "e",
        "er"
      ],
      [
        "i",
        "al"
      ],
      [
        "l",
        "er"
      ],
      [
        "s",
        "h"
      ],
      [
        "u",
        "nder"
      ],
      [
        "Ġ",
        "ver"
      ],
      [
        "Ġw",
        "ings"
      ],
      [
        "Ġs",
        "ize"
      ],
      [
        "re",
        "n"
      ],
      [
        "Ġm",
        "id"
      ],
      [
        "Ġl",
        "aug"
      ],
      [
        "Ġg",
        "un"
      ],
      [
        "Ġg",
        "ener"
      ],
      [
        "Ġhe",
        "ight"
      ],
      [
        "ot",
        "ted"
      ],
      [
        "Ġy",
        "ards"
      ],
      [
        "Ġst",
        "ay"
      ],
      [
        "ent",
        "le"
      ],
      [
        "Ġre",
        "ach"
      ],
      [
        "Ġsh",
        "ow"
      ],
      [
        "Ġbr",
        "anch"
      ],
      [
        "Ġpl",
        "aces"
      ],
      [
        "ak",
        "es"
      ],
      [
        "Ġsm",
        "oke"
      ],
      [
        "ious",
        "ly"
      ],
      [
        "Ġexp",
        "ed"
      ],
      [
        "Ġlo",
        "ve"
      ],
      [
        "Ġpass",
        "age"
      ],
      [
        "ĠR",
        "iver"
      ],
      [
        "Ġpart",
        "s"
      ],
      [
        "Ġke",
        "y"
      ],
      [
        "Ġtal",
        "king"
      ],
      [
        "Ġhapp",
        "ened"
      ],
      [
        "Ġguess",
        "ed"
      ],
      [
        "Ġexce",
        "pt"
      ],
      [
        "Ġesc",
        "ape"
      ],
      [
        "Ġem",
        "pt"
      ],
      [
        "Ġbarre",
        "ls"
      ],
      [
        "Ġinst",
        "ant"
      ],
      [
        "Ġtro",
        "lls"
      ],
      [
        "Ġbott",
        "om"
      ],
      [
        "Ġlaug",
        "hed"
      ],
      [
        "'",
        "m"
      ],
      [
        "f",
        "ect"
      ],
      [
        "i",
        "an"
      ],
      [
        "n",
        "y"
      ],
      [
        "o",
        "f"
      ],
      [
        "Ġf",
        "ine"
      ],
      [
        "Ġc",
        "orn"
      ],
      [
        "Ġm",
        "ad"
      ],
      [
        "Ġm",
        "ist"
      ],
      [
        "Ġm",
        "iddle"
      ],
      [
        "Ġl",
        "ying"
      ],
      [
        "Ġh",
        "on"
      ],
      [
        "Ġh",
        "ig"
      ],
      [
        "Ġp",
        "ar"
      ],
      [
        "Ġp",
        "ict"
      ],
      [
        "id",
        "ed"
      ],
      [
        "Ġr",
        "ushed"
      ],
      [
        "ir",
        "k"
      ],
      [
        "al",
        "th"
      ],
      [
        "Ġre",
        "l"
      ],
      [
        "pe",
        "cially"
      ],
      [
        "Ġme",
        "ans"
      ],
      [
        "Ġsh",
        "ut"
      ],
      [
        "Ġex",
        "ist"
      ],
      [
        "Ġsp",
        "ider"
      ],
      [
        "ak",
        "ed"
      ],
      [
        "ap",
        "le"
      ],
      [
        "Ġgr",
        "im"
      ],
      [
        "ĠP",
        "er"
      ],
      [
        "Ġpre",
        "p"
      ],
      [
        "Ġfell",
        "ah"
      ],
      [
        "Ġpart",
        "y"
      ],
      [
        "ud",
        "e"
      ],
      [
        "Ġste",
        "ep"
      ],
      [
        "Ġsure",
        "ly"
      ],
      [
        "Ġacc",
        "ount"
      ],
      [
        "Ġtor",
        "ches"
      ],
      [
        "Ġpres",
        "ent"
      ],
      [
        "ĠSt",
        "ill"
      ],
      [
        "Ġcre",
        "pt"
      ],
      [
        "Ġsong",
        "s"
      ],
      [
        "Ġcirc",
        "le"
      ],
      [
        "Ġneare",
        "r"
      ],
      [
        "Ġpock",
        "et"
      ],
      [
        "Ġdro",
        "pped"
      ],
      [
        "ĠWh",
        "ite"
      ],
      [
        "oss",
        "ible"
      ],
      [
        "kn",
        "own"
      ],
      [
        "N",
        "ot"
      ],
      [
        "a",
        "ving"
      ],
      [
        "b",
        "e"
      ],
      [
        "c",
        "ess"
      ],
      [
        "f",
        "ace"
      ],
      [
        "s",
        "ion"
      ],
      [
        "Ġ",
        "ve"
      ],
      [
        "Ġt",
        "aking"
      ],
      [
        "in",
        "ary"
      ],
      [
        "Ġb",
        "ound"
      ],
      [
        "Ġb",
        "attle"
      ],
      [
        "Ġf",
        "aces"
      ],
      [
        "or",
        "row"
      ],
      [
        "Ġl",
        "eng"
      ],
      [
        "Ġin",
        "f"
      ],
      [
        "Ġn",
        "orth"
      ],
      [
        "an",
        "ed"
      ],
      [
        "ow",
        "ers"
      ],
      [
        "id",
        "ence"
      ],
      [
        "ic",
        "ular"
      ],
      [
        "Ġst",
        "ars"
      ],
      [
        "Ġst",
        "uck"
      ],
      [
        "ac",
        "ed"
      ],
      [
        "Ġfor",
        "th"
      ],
      [
        "Ġsa",
        "ve"
      ],
      [
        "am",
        "bo"
      ],
      [
        "Ġme",
        "re"
      ],
      [
        "Ġsh",
        "ining"
      ],
      [
        "un",
        "ning"
      ],
      [
        "ĠW",
        "ell"
      ],
      [
        "Ġk",
        "illed"
      ],
      [
        "Ġli",
        "ve"
      ],
      [
        "ĠM",
        "irk"
      ],
      [
        "ĠHe",
        "re"
      ],
      [
        "Ġde",
        "p"
      ],
      [
        "ust",
        "ed"
      ],
      [
        "Ġcl",
        "aim"
      ],
      [
        "Ġpl",
        "ain"
      ],
      [
        "Ġam",
        "az"
      ],
      [
        "Ġtr",
        "ack"
      ],
      [
        "Ġkn",
        "own"
      ],
      [
        "Ġpo",
        "l"
      ],
      [
        "Ġdr",
        "y"
      ],
      [
        "Ġcom",
        "r"
      ],
      [
        "ol",
        "ute"
      ],
      [
        "Ġsha",
        "re"
      ],
      [
        "Ġsw",
        "ift"
      ],
      [
        "ĠJ",
        "ust"
      ],
      [
        "aught",
        "er"
      ],
      [
        "Ġfoll",
        "ow"
      ],
      [
        "Ġent",
        "r"
      ],
      [
        "Ġposs",
        "ible"
      ],
      [
        "Ġyell",
        "ow"
      ],
      [
        "Ġeag",
        "er"
      ],
      [
        "Ġgat",
        "hered"
      ],
      [
        "Ġglo",
        "om"
      ],
      [
        "ĠMirk",
        "wood"
      ],
      [
        "W",
        "hy"
      ],
      [
        "c",
        "ul"
      ],
      [
        "i",
        "en"
      ],
      [
        "n",
        "s"
      ],
      [
        "n",
        "ight"
      ],
      [
        "u",
        "g"
      ],
      [
        "u",
        "ct"
      ],
      [
        "w",
        "ell"
      ],
      [
        "z",
        "e"
      ],
      [
        "Ġs",
        "ne"
      ],
      [
        "Ġb",
        "ed"
      ],
      [
        "Ġf",
        "ish"
      ],
      [
        "Ġm",
        "aster"
      ],
      [
        "or",
        "ge"
      ],
      [
        "Ġp",
        "ter"
      ],
      [
        "Ġp",
        "ie"
      ],
      [
        "Ġp",
        "ull"
      ],
      [
        "Ġp",
        "ushed"
      ],
      [
        "Ġg",
        "as"
      ],
      [
        "Ġg",
        "entle"
      ],
      [
        "an",
        "y"
      ],
      [
        "ĠT",
        "om"
      ],
      [
        "Ġr",
        "ough"
      ],
      [
        "Ġr",
        "ace"
      ],
      [
        "Ġst",
        "ud"
      ],
      [
        "ac",
        "le"
      ],
      [
        "Ġwh",
        "om"
      ],
      [
        "et",
        "ch"
      ],
      [
        "Ġse",
        "ar"
      ],
      [
        "ter",
        "ing"
      ],
      [
        "Ġsh",
        "ore"
      ],
      [
        "Ġli",
        "ked"
      ],
      [
        "ĠM",
        "aple"
      ],
      [
        "ĠG",
        "reat"
      ],
      [
        "ĠG",
        "ate"
      ],
      [
        "Ġcl",
        "osed"
      ],
      [
        "Ġpl",
        "an"
      ],
      [
        "Ġtr",
        "uth"
      ],
      [
        "Ġlike",
        "ly"
      ],
      [
        "Ġcom",
        "es"
      ],
      [
        "ĠE",
        "ast"
      ],
      [
        "ĠE",
        "ng"
      ],
      [
        "Ġsc",
        "ience"
      ],
      [
        "Ġpre",
        "t"
      ],
      [
        "Ġpr",
        "om"
      ],
      [
        "Ġpr",
        "ot"
      ],
      [
        "Ġgre",
        "y"
      ],
      [
        "The",
        "y"
      ],
      [
        "Ġsomet",
        "imes"
      ],
      [
        "Ġdragon",
        "s"
      ],
      [
        "ĠBe",
        "fore"
      ],
      [
        "Ġimp",
        "ossible"
      ],
      [
        "Ġsupp",
        "er"
      ],
      [
        "Ġwall",
        "s"
      ],
      [
        "Ġwal",
        "ked"
      ],
      [
        "Ġspr",
        "ing"
      ],
      [
        "Ġspr",
        "ang"
      ],
      [
        "Ġcompan",
        "ions"
      ],
      [
        "Ġesc",
        "aped"
      ],
      [
        "wh",
        "ich"
      ],
      [
        "Ġabs",
        "olute"
      ],
      [
        "Ġfly",
        "ing"
      ],
      [
        "ĠZ",
        "ambo"
      ],
      [
        "Ġfig",
        "ure"
      ],
      [
        "Ġprison",
        "ers"
      ],
      [
        "Ġburgl",
        "ar"
      ],
      [
        "C",
        "ome"
      ],
      [
        "b",
        "y"
      ],
      [
        "g",
        "ing"
      ],
      [
        "i",
        "ved"
      ],
      [
        "s",
        "es"
      ],
      [
        "t",
        "ic"
      ],
      [
        "u",
        "ght"
      ],
      [
        "Ġt",
        "em"
      ],
      [
        "Ġw",
        "orth"
      ],
      [
        "Ġs",
        "ix"
      ],
      [
        "Ġb",
        "at"
      ],
      [
        "on",
        "y"
      ],
      [
        "Ġd",
        "est"
      ],
      [
        "Ġl",
        "ot"
      ],
      [
        "Ġl",
        "aid"
      ],
      [
        "Ġe",
        "ch"
      ],
      [
        "ur",
        "d"
      ],
      [
        "Ġst",
        "ory"
      ],
      [
        "pe",
        "red"
      ],
      [
        "ĠW",
        "est"
      ],
      [
        "Ġk",
        "ill"
      ],
      [
        "ri",
        "e"
      ],
      [
        "Ġle",
        "ct"
      ],
      [
        "Ġde",
        "light"
      ],
      [
        "Ġsee",
        "ms"
      ],
      [
        "Ġsp",
        "ir"
      ],
      [
        "Ġpl",
        "ay"
      ],
      [
        "Ġpl",
        "ans"
      ],
      [
        "Ġtr",
        "ave"
      ],
      [
        "ĠTh",
        "r"
      ],
      [
        "--",
        "\""
      ],
      [
        "Ġpo",
        "s"
      ],
      [
        "ĠO",
        "f"
      ],
      [
        "ĠN",
        "orth"
      ],
      [
        "Ġsl",
        "op"
      ],
      [
        "Ġsl",
        "ope"
      ],
      [
        "Ġun",
        "known"
      ],
      [
        "Ġar",
        "r"
      ],
      [
        "Ġsha",
        "pe"
      ],
      [
        "Ġthink",
        "ing"
      ],
      [
        "Ġgu",
        "ards"
      ],
      [
        "act",
        "y"
      ],
      [
        "Ġpart",
        "icular"
      ],
      [
        "anc",
        "ed"
      ],
      [
        "Ġsur",
        "face"
      ],
      [
        "Ġes",
        "pecially"
      ],
      [
        "Ġquick",
        "ly"
      ],
      [
        "Ġhur",
        "ry"
      ],
      [
        "od",
        "acty"
      ],
      [
        "gr",
        "ound"
      ],
      [
        "Ġneare",
        "st"
      ],
      [
        "Ġscr",
        "am"
      ],
      [
        "ĠAmeric",
        "a"
      ],
      [
        "Ġforg",
        "otten"
      ],
      [
        "Ġdisco",
        "vered"
      ],
      [
        "Ġlear",
        "ned"
      ],
      [
        "Ġgener",
        "al"
      ],
      [
        "Ġleng",
        "th"
      ],
      [
        "Ġpter",
        "odacty"
      ],
      [
        "f",
        "or"
      ],
      [
        "h",
        "ow"
      ],
      [
        "o",
        "ot"
      ],
      [
        "r",
        "aid"
      ],
      [
        "t",
        "s"
      ],
      [
        "Ġt",
        "en"
      ],
      [
        "in",
        "es"
      ],
      [
        "Ġw",
        "ished"
      ],
      [
        "Ġs",
        "ense"
      ],
      [
        "Ġo",
        "ught"
      ],
      [
        "Ġb",
        "urn"
      ],
      [
        "Ġf",
        "a"
      ],
      [
        "Ġf",
        "ing"
      ],
      [
        "Ġf",
        "ool"
      ],
      [
        "Ġl",
        "it"
      ],
      [
        "at",
        "ure"
      ],
      [
        "Ġth",
        "rew"
      ],
      [
        "Ġst",
        "ate"
      ],
      [
        "Ġas",
        "leep"
      ],
      [
        "al",
        "ed"
      ],
      [
        "Ġre",
        "co"
      ],
      [
        "if",
        "ied"
      ],
      [
        "ce",
        "ed"
      ],
      [
        "Ġse",
        "nd"
      ],
      [
        "um",
        "bling"
      ],
      [
        "Ġsu",
        "gg"
      ],
      [
        "Ġde",
        "l"
      ],
      [
        "Ġde",
        "ath"
      ],
      [
        "ĠG",
        "lo"
      ],
      [
        "Ġex",
        "act"
      ],
      [
        "Ġsp",
        "ite"
      ],
      [
        "Ġbr",
        "ush"
      ],
      [
        "Ġj",
        "umped"
      ],
      [
        "Ġv",
        "ar"
      ],
      [
        "Ġag",
        "es"
      ],
      [
        "ap",
        "s"
      ],
      [
        "ap",
        "er"
      ],
      [
        "ist",
        "ed"
      ],
      [
        "Ġgr",
        "and"
      ],
      [
        "Ġbl",
        "ood"
      ],
      [
        "Ġun",
        "com"
      ],
      [
        "Ġstr",
        "uck"
      ],
      [
        "Ġshould",
        "er"
      ],
      [
        "em",
        "ent"
      ],
      [
        "Ġpro",
        "per"
      ],
      [
        "Ġlight",
        "s"
      ],
      [
        "Ġwor",
        "se"
      ],
      [
        "Ġturn",
        "ing"
      ],
      [
        "Ġdoor",
        "s"
      ],
      [
        "The",
        "n"
      ],
      [
        "Ġcour",
        "age"
      ],
      [
        "Ġsk",
        "in"
      ],
      [
        "Ġbec",
        "ome"
      ],
      [
        "Ġfall",
        "ing"
      ],
      [
        "Ġlow",
        "er"
      ],
      [
        "ret",
        "ched"
      ],
      [
        "ĠK",
        "ing"
      ],
      [
        "Ġhapp",
        "en"
      ],
      [
        "Ġmis",
        "er"
      ],
      [
        "Ġsqu",
        "e"
      ],
      [
        "Ġhung",
        "ry"
      ],
      [
        "Ġeas",
        "y"
      ],
      [
        "Ġdisc",
        "us"
      ],
      [
        "Ġserv",
        "ice"
      ],
      [
        "Ġbreat",
        "h"
      ],
      [
        "Ġstre",
        "ng"
      ],
      [
        "ĠGobl",
        "in"
      ],
      [
        "Ġexped",
        "ition"
      ],
      [
        "Ġempt",
        "y"
      ],
      [
        "Ġcorn",
        "er"
      ],
      [
        "Ġpret",
        "ty"
      ],
      [
        "Ġlect",
        "ure"
      ],
      [
        "Ġsugg",
        "est"
      ],
      [
        "ĠGlo",
        "in"
      ],
      [
        "Ġuncom",
        "fort"
      ],
      [
        "Y",
        "es"
      ],
      [
        "i",
        "pe"
      ],
      [
        "r",
        "ing"
      ],
      [
        "s",
        "ha"
      ],
      [
        "u",
        "se"
      ],
      [
        "Ġt",
        "ang"
      ],
      [
        "Ġt",
        "ale"
      ],
      [
        "Ġa",
        "ff"
      ],
      [
        "Ġa",
        "head"
      ],
      [
        "Ġw",
        "om"
      ],
      [
        "Ġw",
        "est"
      ],
      [
        "Ġw",
        "icked"
      ],
      [
        "it",
        "ions"
      ],
      [
        "ll",
        "ent"
      ],
      [
        "Ġp",
        "ower"
      ],
      [
        "id",
        "ing"
      ],
      [
        "Ġe",
        "ars"
      ],
      [
        "Ġwe",
        "ary"
      ],
      [
        "ĠT",
        "ook"
[...]
